<unk>	0
<s>	0
</s>	0
en	-0
er	-1
in	-2
▁d	-3
▁t	-4
ch	-5
▁a	-6
on	-7
▁th	-8
es	-9
un	-10
is	-11
▁w	-12
it	-13
▁s	-14
at	-15
ie	-16
▁the	-17
or	-18
an	-19
re	-20
ich	-21
▁b	-22
ion	-23
▁in	-24
▁o	-25
▁m	-26
al	-27
▁f	-28
ro	-29
ar	-30
▁e	-31
te	-32
le	-33
as	-34
▁an	-35
ent	-36
▁h	-37
▁p	-38
▁un	-39
▁c	-40
▁n	-41
us	-42
ung	-43
ge	-44
▁of	-45
▁die	-46
▁to	-47
▁E	-48
▁der	-49
▁v	-50
om	-51
▁be	-52
ur	-53
ing	-54
ll	-55
▁I	-56
▁and	-57
▁und	-58
▁A	-59
▁is	-60
ir	-61
ed	-62
ig	-63
st	-64
▁S	-65
▁M	-66
▁z	-67
▁ein	-68
▁P	-69
em	-70
ra	-71
im	-72
▁g	-73
ic	-74
ut	-75
eit	-76
▁B	-77
ies	-78
icht	-79
el	-80
▁D	-81
ol	-82
▁re	-83
ation	-84
rop	-85
id	-86
sch	-87
▁T	-88
ter	-89
am	-90
ten	-91
▁W	-92
ul	-93
omm	-94
▁that	-95
der	-96
ber	-97
il	-98
ve	-99
▁zu	-100
hr	-101
lich	-102
den	-103
urop	-104
▁F	-105
ct	-106
isch	-107
ür	-108
▁das	-109
et	-110
▁K	-111
gen	-112
▁R	-113
▁au	-114
▁V	-115
▁l	-116
▁for	-117
ab	-118
▁den	-119
▁G	-120
ein	-121
▁Europ	-122
▁k	-123
▁on	-124
um	-125
▁C	-126
▁wir	-127
▁wh	-128
ot	-129
▁H	-130
res	-131
iss	-132
ere	-133
ly	-134
▁U	-135
▁ge	-136
ort	-137
ier	-138
▁im	-139
▁we	-140
▁al	-141
de	-142
▁Th	-143
ff	-144
tr	-145
▁so	-146
▁dies	-147
os	-148
and	-149
▁ver	-150
ver	-151
▁con	-152
ce	-153
▁für	-154
▁it	-155
▁von	-156
▁ist	-157
men	-158
est	-159
▁er	-160
▁pro	-161
ommiss	-162
ft	-163
ach	-164
▁L	-165
kt	-166
▁Un	-167
▁this	-168
▁Ver	-169
ess	-170
▁auf	-171
▁ha	-172
ill	-173
ischen	-174
▁as	-175
▁des	-176
▁are	-177
ith	-178
ommission	-179
ment	-180
▁In	-181
▁ne	-182
ow	-183
▁nicht	-184
▁Europe	-185
▁dass	-186
pp	-187
▁de	-188
▁with	-189
▁Z	-190
▁not	-191
uld	-192
ungen	-193
ould	-194
op	-195
ke	-196
▁da	-197
ident	-198
sp	-199
her	-200
▁have	-201
ate	-202
▁st	-203
▁wer	-204
▁als	-205
▁eine	-206
iv	-207
ind	-208
▁dem	-209
la	-210
▁se	-211
▁N	-212
ts	-213
▁werden	-214
ive	-215
▁-	-216
ial	-217
än	-218
end	-219
ens	-220
über	-221
▁es	-222
▁mit	-223
▁j	-224
lie	-225
ity	-226
▁Par	-227
ament	-228
▁Re	-229
▁St	-230
oun	-231
▁which	-232
for	-233
▁le	-234
if	-235
ib	-236
▁su	-237
ust	-238
▁all	-239
▁European	-240
▁ex	-241
err	-242
▁r	-243
nen	-244
ant	-245
ay	-246
▁The	-247
▁will	-248
▁ich	-249
hal	-250
ah	-251
aus	-252
▁uns	-253
▁An	-254
ck	-255
ne	-256
qu	-257
▁Parl	-258
▁auch	-259
sen	-260
ann	-261
▁hab	-262
▁y	-263
▁sich	-264
igen	-265
ste	-266
▁by	-267
we	-268
▁ab	-269
ug	-270
ht	-271
▁Union	-272
und	-273
scha	-274
ungs	-275
▁vor	-276
▁über	-277
port	-278
▁me	-279
uss	-280
▁res	-281
▁sh	-282
ad	-283
ions	-284
rä	-285
ik	-286
hen	-287
och	-288
ain	-289
our	-290
▁Mr	-291
▁has	-292
iel	-293
▁Commission	-294
pe	-295
▁um	-296
ien	-297
ted	-298
olit	-299
ist	-300
▁Herr	-301
art	-302
tz	-303
▁wird	-304
ern	-305
ers	-306
▁Be	-307
▁Ich	-308
▁2	-309
schaft	-310
ure	-311
▁at	-312
ben	-313
▁aus	-314
▁En	-315
▁1	-316
uf	-317
ische	-318
heit	-319
ges	-320
▁Fra	-321
etz	-322
▁haben	-323
▁or	-324
▁hat	-325
▁Die	-326
▁We	-327
me	-328
▁sind	-329
▁Mit	-330
▁Europä	-331
▁J	-332
uch	-333
▁EU	-334
▁wie	-335
up	-336
▁sch	-337
▁i	-338
ahr	-339
gr	-340
▁wor	-341
llen	-342
▁com	-343
▁was	-344
beit	-345
▁also	-346
▁Wir	-347
▁Aus	-348
▁do	-349
rom	-350
▁Er	-351
▁ma	-352
keit	-353
▁Sch	-354
ember	-355
enn	-356
ates	-357
räs	-358
chte	-359
▁O	-360
be	-361
ue	-362
▁Kommission	-363
▁zur	-364
ise	-365
▁Ar	-366
00	-367
ran	-368
▁Pres	-369
▁Pro	-370
aten	-371
▁(	-372
all	-373
räsident	-374
▁Ber	-375
ard	-376
iz	-377
tern	-378
▁sie	-379
▁ag	-380
▁en	-381
ational	-382
rit	-383
ige	-384
du	-385
▁would	-386
▁dar	-387
▁Vor	-388
od	-389
lichen	-390
dern	-391
ations	-392
▁sein	-393
gt	-394
▁reg	-395
eren	-396
▁daß	-397
▁he	-398
▁there	-399
▁mö	-400
▁ent	-401
se	-402
▁should	-403
ön	-404
ous	-405
▁am	-406
▁our	-407
är	-408
ect	-409
▁us	-410
esch	-411
▁President	-412
ak	-413
üs	-414
ult	-415
▁Präsident	-416
urch	-417
▁from	-418
ther	-419
ud	-420
ore	-421
ord	-422
▁unter	-423
▁Ein	-424
▁part	-425
ip	-426
cht	-427
age	-428
ou	-429
ese	-430
ze	-431
▁must	-432
th	-433
ger	-434
▁fa	-435
ms	-436
▁man	-437
▁Ab	-438
▁Ent	-439
▁ad	-440
ert	-441
cial	-442
iament	-443
ommen	-444
able	-445
▁Parlament	-446
ical	-447
ire	-448
▁einer	-449
▁but	-450
▁Bericht	-451
ick	-452
▁coun	-453
ction	-454
▁been	-455
▁Member	-456
ble	-457
out	-458
anz	-459
ät	-460
▁Sie	-461
▁It	-462
▁kön	-463
ition	-464
cc	-465
▁diese	-466
sta	-467
glie	-468
con	-469
▁sa	-470
ühr	-471
▁comp	-472
og	-473
vel	-474
ute	-475
ub	-476
▁bet	-477
▁ch	-478
▁Ge	-479
▁go	-480
▁countr	-481
▁müs	-482
ün	-483
ution	-484
▁nach	-485
▁Europäischen	-486
▁bei	-487
ome	-488
ast	-489
▁its	-490
iff	-491
ieren	-492
▁Parliament	-493
imm	-494
ang	-495
ank	-496
ok	-497
liche	-498
elt	-499
igh	-500
▁app	-501
▁Gr	-502
▁comm	-503
form	-504
ör	-505
▁müssen	-506
▁Mitglie	-507
reat	-508
▁einen	-509
▁prop	-510
▁can	-511
mer	-512
▁co	-513
▁report	-514
▁li	-515
ish	-516
▁qu	-517
ary	-518
▁you	-519
cil	-520
olle	-521
lo	-522
itte	-523
mp	-524
uß	-525
▁gro	-526
▁dieser	-527
▁durch	-528
chen	-529
▁soll	-530
▁polit	-531
▁pos	-532
▁ste	-533
ear	-534
ierung	-535
zu	-536
▁möchte	-537
▁dis	-538
▁more	-539
▁ob	-540
ass	-541
▁imp	-542
hl	-543
oc	-544
ose	-545
▁need	-546
rag	-547
▁fin	-548
▁pr	-549
▁str	-550
▁ih	-551
eine	-552
ance	-553
▁inc	-554
▁wur	-555
▁Mitglied	-556
▁States	-557
nah	-558
oll	-559
he	-560
ight	-561
ress	-562
▁noch	-563
▁gen	-564
ement	-565
▁Coun	-566
ime	-567
▁Es	-568
sten	-569
▁zw	-570
olic	-571
rat	-572
▁Council	-573
▁their	-574
▁alle	-575
pt	-576
igkeit	-577
gra	-578
▁like	-579
ely	-580
▁import	-581
▁können	-582
▁work	-583
ia	-584
schen	-585
fen	-586
pport	-587
▁bes	-588
▁zum	-589
▁Das	-590
uropä	-591
▁Arbeit	-592
▁200	-593
gan	-594
▁very	-595
▁diesem	-596
hmen	-597
ally	-598
▁cons	-599
glich	-600
▁Frau	-601
ap	-602
▁who	-603
tschaft	-604
▁pe	-605
▁nur	-606
cy	-607
ütz	-608
▁Reg	-609
staaten	-610
ktion	-611
▁kann	-612
sam	-613
ark	-614
▁other	-615
▁bec	-616
▁polic	-617
au	-618
iert	-619
▁conc	-620
oin	-621
▁ber	-622
▁cont	-623
▁propos	-624
▁This	-625
ign	-626
▁spe	-627
▁war	-628
▁these	-629
ück	-630
olitik	-631
▁aber	-632
wer	-633
▁europä	-634
stit	-635
ag	-636
fore	-637
▁wenn	-638
▁eff	-639
yste	-640
str	-641
▁te	-642
▁Unter	-643
▁they	-644
▁ta	-645
▁sp	-646
usam	-647
ähr	-648
▁Kon	-649
▁gegen	-650
wo	-651
sib	-652
▁oder	-653
▁sehr	-654
▁jed	-655
▁pre	-656
▁one	-657
ide	-658
▁ges	-659
usammen	-660
▁Rat	-661
ffen	-662
▁weit	-663
▁int	-664
aß	-665
teil	-666
gram	-667
lic	-668
lin	-669
erv	-670
ced	-671
ichtig	-672
▁countries	-673
▁out	-674
are	-675
ugh	-676
wick	-677
▁Mitgliedstaaten	-678
▁Men	-679
ließ	-680
ause	-681
che	-682
utz	-683
▁ihr	-684
ong	-685
one	-686
iden	-687
ments	-688
▁agre	-689
▁no	-690
velop	-691
erst	-692
▁acc	-693
ring	-694
▁mo	-695
▁what	-696
leich	-697
▁exp	-698
ject	-699
ität	-700
▁intern	-701
▁Dies	-702
▁about	-703
▁Comm	-704
lung	-705
ople	-706
▁my	-707
▁inter	-708
ities	-709
vent	-710
conom	-711
▁up	-712
ative	-713
▁Jahr	-714
reich	-715
rie	-716
onder	-717
itu	-718
ated	-719
ces	-720
▁tra	-721
▁ra	-722
ice	-723
▁gem	-724
▁Menschen	-725
lan	-726
▁ind	-727
▁hin	-728
▁important	-729
▁new	-730
▁leg	-731
ious	-732
los	-733
ase	-734
erg	-735
stütz	-736
▁De	-737
iven	-738
etzt	-739
führ	-740
▁sol	-741
▁dec	-742
bar	-743
assen	-744
▁Vorsch	-745
▁mehr	-746
arbeit	-747
▁einem	-748
▁year	-749
cess	-750
▁–	-751
▁people	-752
▁only	-753
▁develop	-754
lä	-755
land	-756
ism	-757
sche	-758
ever	-759
atter	-760
▁For	-761
ahl	-762
▁partic	-763
tet	-764
▁Der	-765
▁wo	-766
▁support	-767
▁policy	-768
änd	-769
▁time	-770
▁dieses	-771
▁muss	-772
ink	-773
xt	-774
▁Le	-775
▁ihre	-776
▁tran	-777
ility	-778
nung	-779
▁Auf	-780
▁iss	-781
ian	-782
▁econom	-783
ular	-784
▁Europa	-785
lear	-786
fahr	-787
auf	-788
▁because	-789
ateg	-790
▁again	-791
▁fre	-792
▁if	-793
wir	-794
▁national	-795
hin	-796
alt	-797
▁proposal	-798
ider	-799
▁op	-800
▁unser	-801
geb	-802
ner	-803
▁wurde	-804
ights	-805
wend	-806
▁Europäische	-807
▁gew	-808
ituation	-809
▁rec	-810
▁mein	-811
icher	-812
ri	-813
▁act	-814
fe	-815
änder	-816
ibt	-817
ine	-818
fl	-819
halten	-820
hand	-821
ange	-822
ile	-823
▁Ä	-824
▁hier	-825
sicht	-826
llt	-827
kommen	-828
chn	-829
ild	-830
ken	-831
halb	-832
ures	-833
nahmen	-834
blem	-835
ven	-836
▁vie	-837
uman	-838
▁Zusammen	-839
ings	-840
ors	-841
▁any	-842
▁gr	-843
▁Entwick	-844
▁international	-845
▁now	-846
▁As	-847
lar	-848
▁la	-849
▁Um	-850
▁dire	-851
▁Grund	-852
irst	-853
▁Se	-854
ific	-855
oint	-856
▁prov	-857
▁ins	-858
▁Bür	-859
▁inv	-860
▁19	-861
▁Ü	-862
halt	-863
▁dam	-864
▁Kolle	-865
▁such	-866
▁sub	-867
fol	-868
▁Verb	-869
▁rel	-870
▁per	-871
▁how	-872
amp	-873
legen	-874
▁vo	-875
▁kon	-876
tel	-877
▁So	-878
▁bereit	-879
zial	-880
▁mark	-881
nehmen	-882
▁Te	-883
unity	-884
▁take	-885
▁some	-886
▁say	-887
▁fe	-888
▁viel	-889
ystem	-890
▁particular	-891
mend	-892
▁Fin	-893
▁make	-894
▁Maß	-895
ument	-896
lag	-897
pect	-898
pon	-899
wor	-900
▁into	-901
ru	-902
▁produ	-903
chts	-904
▁deb	-905
▁ar	-906
ween	-907
▁diff	-908
stitution	-909
mal	-910
▁concern	-911
▁between	-912
▁those	-913
enz	-914
schie	-915
▁Über	-916
rauch	-917
schließ	-918
tre	-919
▁fact	-920
ards	-921
äch	-922
ives	-923
fr	-924
ual	-925
vern	-926
innen	-927
▁just	-928
nder	-929
einsam	-930
igt	-931
▁pla	-932
ittee	-933
isten	-934
leg	-935
hör	-936
erung	-937
estimm	-938
▁Änder	-939
ov	-940
▁Land	-941
ues	-942
ame	-943
now	-944
ustr	-945
▁Ges	-946
▁zwischen	-947
für	-948
▁diesen	-949
▁habe	-950
▁Bed	-951
essen	-952
igung	-953
gel	-954
▁belie	-955
▁eines	-956
isation	-957
inis	-958
äl	-959
▁human	-960
ha	-961
eration	-962
▁when	-963
▁way	-964
▁market	-965
fer	-966
sible	-967
uen	-968
zie	-969
▁rights	-970
kte	-971
ite	-972
▁europäischen	-973
unkt	-974
get	-975
▁clear	-976
▁pres	-977
▁them	-978
hn	-979
▁therefore	-980
▁bas	-981
▁Zeit	-982
▁political	-983
▁Haus	-984
▁tak	-985
▁quest	-986
issen	-987
▁being	-988
▁wichtig	-989
ient	-990
▁wel	-991
icherheit	-992
▁Al	-993
▁groß	-994
ds	-995
ural	-996
▁son	-997
ob	-998
▁gibt	-999
zeit	-1000
ctive	-1001
▁ro	-1002
▁Bürger	-1003
ision	-1004
forder	-1005
rei	-1006
▁Gem	-1007
weit	-1008
olog	-1009
▁over	-1010
ld	-1011
atz	-1012
▁damit	-1013
▁"	-1014
▁respon	-1015
formation	-1016
▁3	-1017
ionen	-1018
▁keine	-1019
▁made	-1020
▁unsere	-1021
ating	-1022
day	-1023
▁were	-1024
ats	-1025
▁fund	-1026
▁mich	-1027
ublic	-1028
iti	-1029
wie	-1030
amen	-1031
acht	-1032
▁tr	-1033
▁emp	-1034
▁Frage	-1035
▁ass	-1036
▁rep	-1037
ändern	-1038
enden	-1039
▁agreement	-1040
▁than	-1041
▁first	-1042
ans	-1043
▁Commissioner	-1044
▁Ih	-1045
▁end	-1046
▁economic	-1047
▁great	-1048
▁disc	-1049
▁know	-1050
tw	-1051
▁Bere	-1052
▁believe	-1053
arkt	-1054
▁Kommiss	-1055
abe	-1056
icult	-1057
▁Art	-1058
▁jedoch	-1059
▁rem	-1060
eral	-1061
▁think	-1062
▁weiter	-1063
led	-1064
▁sondern	-1065
iger	-1066
▁wür	-1067
bst	-1068
▁Richt	-1069
achen	-1070
trä	-1071
uro	-1072
ty	-1073
▁Kommissar	-1074
pr	-1075
▁Bereich	-1076
pro	-1077
▁stat	-1078
els	-1079
nis	-1080
▁Herrn	-1081
▁see	-1082
ragen	-1083
▁20	-1084
itz	-1085
mit	-1086
▁Maßnahmen	-1087
lement	-1088
rechen	-1089
▁many	-1090
very	-1091
fin	-1092
ett	-1093
▁anderen	-1094
ved	-1095
ack	-1096
▁social	-1097
▁gemeinsam	-1098
itiz	-1099
▁against	-1100
weise	-1101
▁hel	-1102
▁'	-1103
▁beste	-1104
▁heute	-1105
▁meas	-1106
▁right	-1107
▁hand	-1108
▁ho	-1109
▁sollte	-1110
▁sollten	-1111
vor	-1112
dem	-1113
▁einz	-1114
ittel	-1115
▁prote	-1116
▁unterstütz	-1117
▁Str	-1118
kl	-1119
ene	-1120
entr	-1121
▁under	-1122
▁requ	-1123
chten	-1124
▁Aussch	-1125
inn	-1126
▁add	-1127
▁debate	-1128
arm	-1129
▁bis	-1130
fü	-1131
orte	-1132
▁amend	-1133
▁sel	-1134
▁denn	-1135
▁citiz	-1136
▁nat	-1137
▁Sta	-1138
wn	-1139
▁dann	-1140
▁Mein	-1141
▁kein	-1142
▁Parlaments	-1143
▁her	-1144
▁sowie	-1145
▁That	-1146
▁fest	-1147
▁ganz	-1148
ention	-1149
▁Entwicklung	-1150
▁finan	-1151
ischer	-1152
▁incl	-1153
cept	-1154
tro	-1155
▁cr	-1156
▁Sp	-1157
ertain	-1158
▁There	-1159
einschaft	-1160
▁point	-1161
act	-1162
▁199	-1163
isk	-1164
eth	-1165
▁good	-1166
eschä	-1167
ull	-1168
▁bereits	-1169
▁Zu	-1170
▁incre	-1171
▁Vorschlag	-1172
▁Con	-1173
read	-1174
▁Committee	-1175
ving	-1176
isse	-1177
gend	-1178
▁ac	-1179
▁immer	-1180
ope	-1181
▁well	-1182
gem	-1183
▁development	-1184
▁effect	-1185
isl	-1186
ss	-1187
▁even	-1188
▁ens	-1189
okrat	-1190
▁issue	-1191
bal	-1192
▁transp	-1193
oth	-1194
urr	-1195
▁cour	-1196
▁adop	-1197
▁Ko	-1198
▁bring	-1199
loy	-1200
▁Änderungs	-1201
ough	-1202
▁question	-1203
kehr	-1204
ondere	-1205
▁years	-1206
▁order	-1207
ices	-1208
ional	-1209
ulation	-1210
▁where	-1211
bes	-1212
feren	-1213
▁citizens	-1214
iron	-1215
lemen	-1216
udget	-1217
raft	-1218
ffent	-1219
▁weil	-1220
ritt	-1221
cted	-1222
ree	-1223
▁fut	-1224
▁bin	-1225
▁par	-1226
▁Rechts	-1227
▁country	-1228
erson	-1229
▁gesch	-1230
▁future	-1231
▁situation	-1232
▁Sicherheit	-1233
sel	-1234
▁public	-1235
▁Wirtschaft	-1236
trag	-1237
▁Hin	-1238
▁two	-1239
hne	-1240
viron	-1241
ited	-1242
▁How	-1243
imin	-1244
▁Dem	-1245
▁cann	-1246
▁wurden	-1247
inister	-1248
▁want	-1249
▁view	-1250
vironment	-1251
▁Mittel	-1252
llung	-1253
▁Da	-1254
▁aut	-1255
▁contin	-1256
▁ger	-1257
▁neg	-1258
▁cannot	-1259
▁resol	-1260
▁here	-1261
mittel	-1262
▁does	-1263
▁meine	-1264
iß	-1265
ahmen	-1266
ost	-1267
▁level	-1268
ised	-1269
isen	-1270
▁lie	-1271
▁use	-1272
▁Inter	-1273
▁wieder	-1274
operation	-1275
▁darauf	-1276
▁consider	-1277
etzen	-1278
▁same	-1279
▁real	-1280
nahme	-1281
ordnung	-1282
▁Nach	-1283
▁had	-1284
▁program	-1285
▁regard	-1286
les	-1287
▁Wh	-1288
▁measures	-1289
▁possible	-1290
scheid	-1291
▁denen	-1292
richt	-1293
isp	-1294
▁wirk	-1295
inc	-1296
vers	-1297
eschäft	-1298
▁unserer	-1299
▁every	-1300
▁vom	-1301
▁Gro	-1302
fall	-1303
rough	-1304
▁Rahmen	-1305
▁certain	-1306
geben	-1307
▁verb	-1308
linie	-1309
▁5	-1310
öglich	-1311
ory	-1312
ätz	-1313
▁appro	-1314
uer	-1315
▁could	-1316
▁Finanz	-1317
fahren	-1318
▁most	-1319
▁dafür	-1320
ffe	-1321
▁Ste	-1322
▁sagen	-1323
ict	-1324
▁Ch	-1325
▁beg	-1326
ied	-1327
▁said	-1328
welt	-1329
▁legisl	-1330
äre	-1331
▁zwe	-1332
▁today	-1333
▁geht	-1334
▁mon	-1335
bens	-1336
lagen	-1337
▁Verein	-1338
▁techn	-1339
ently	-1340
▁Wie	-1341
zus	-1342
omp	-1343
such	-1344
utions	-1345
▁matter	-1346
▁Them	-1347
work	-1348
chie	-1349
tegr	-1350
ready	-1351
▁much	-1352
▁jetzt	-1353
▁system	-1354
▁curr	-1355
▁through	-1356
▁already	-1357
▁letz	-1358
▁att	-1359
▁.	-1360
▁Me	-1361
▁democ	-1362
▁off	-1363
▁dazu	-1364
satz	-1365
besondere	-1366
itions	-1367
▁Wenn	-1368
etzung	-1369
▁budget	-1370
gehen	-1371
erm	-1372
derung	-1373
▁still	-1374
red	-1375
▁4	-1376
▁put	-1377
vernment	-1378
gesch	-1379
▁Kollegen	-1380
▁ele	-1381
orteur	-1382
▁ö	-1383
▁too	-1384
ful	-1385
▁Or	-1386
▁sec	-1387
ös	-1388
▁Hand	-1389
omen	-1390
▁achie	-1391
ority	-1392
▁within	-1393
lobal	-1394
stimm	-1395
▁process	-1396
▁serv	-1397
▁sozial	-1398
▁vote	-1399
▁Mrs	-1400
▁financial	-1401
▁mir	-1402
pporteur	-1403
▁Energ	-1404
▁ihrer	-1405
ac	-1406
▁able	-1407
▁ask	-1408
▁gleich	-1409
klär	-1410
▁num	-1411
▁Ziel	-1412
▁Gemeinschaft	-1413
▁environment	-1414
ständ	-1415
▁Politik	-1416
▁discuss	-1417
▁world	-1418
▁common	-1419
▁etw	-1420
▁rapporteur	-1421
▁your	-1422
▁sicher	-1423
cond	-1424
eln	-1425
▁selbst	-1426
▁However	-1427
▁neuen	-1428
▁thank	-1429
▁own	-1430
▁organ	-1431
▁hope	-1432
licher	-1433
ekt	-1434
▁pra	-1435
ält	-1436
▁sect	-1437
▁both	-1438
▁Im	-1439
ukt	-1440
▁muß	-1441
▁insbesondere	-1442
alth	-1443
ason	-1444
▁high	-1445
▁Berichterst	-1446
wort	-1447
▁group	-1448
▁gla	-1449
lish	-1450
öß	-1451
ouse	-1452
▁interest	-1453
▁sign	-1454
ühren	-1455
▁gu	-1456
kun	-1457
▁Community	-1458
▁energ	-1459
heiten	-1460
▁würde	-1461
uct	-1462
uring	-1463
▁cooperation	-1464
urity	-1465
▁Euro	-1466
▁ensure	-1467
▁course	-1468
lage	-1469
ispiel	-1470
urther	-1471
lossen	-1472
▁Des	-1473
itive	-1474
öglichkeit	-1475
ting	-1476
wohl	-1477
▁get	-1478
▁taken	-1479
▁law	-1480
ves	-1481
reit	-1482
affen	-1483
▁Länder	-1484
isierung	-1485
blems	-1486
▁reason	-1487
▁Geb	-1488
incip	-1489
▁ser	-1490
way	-1491
vention	-1492
▁problem	-1493
▁Ihnen	-1494
▁examp	-1495
▁princip	-1496
reichen	-1497
▁Zusammenarbeit	-1498
rechte	-1499
▁wen	-1500
▁conf	-1501
▁impro	-1502
▁case	-1503
▁strateg	-1504
▁doch	-1505
▁könn	-1506
tens	-1507
genommen	-1508
▁fra	-1509
▁respect	-1510
zeich	-1511
▁number	-1512
▁sc	-1513
antwort	-1514
arge	-1515
öl	-1516
▁möglich	-1517
▁last	-1518
lungen	-1519
▁Unterstütz	-1520
▁begr	-1521
spra	-1522
ail	-1523
zeug	-1524
▁allem	-1525
▁Diese	-1526
▁best	-1527
▁area	-1528
▁his	-1529
assung	-1530
trib	-1531
▁ohne	-1532
▁wollen	-1533
▁Umwelt	-1534
io	-1535
▁ausge	-1536
▁sim	-1537
ster	-1538
schieden	-1539
äß	-1540
error	-1541
▁Ausschuss	-1542
▁stand	-1543
ince	-1544
▁Her	-1545
zug	-1546
kunft	-1547
▁hal	-1548
ismus	-1549
▁necess	-1550
▁spec	-1551
▁Welt	-1552
▁Recht	-1553
▁auth	-1554
ential	-1555
▁redu	-1556
▁lo	-1557
▁gut	-1558
▁place	-1559
▁main	-1560
▁wirtschaft	-1561
▁Arbeits	-1562
ruck	-1563
▁Mon	-1564
▁som	-1565
▁machen	-1566
äh	-1567
ital	-1568
▁find	-1569
lim	-1570
cing	-1571
▁why	-1572
▁Unterstützung	-1573
orities	-1574
▁object	-1575
▁may	-1576
▁compet	-1577
▁einige	-1578
itä	-1579
▁allen	-1580
stellen	-1581
▁then	-1582
▁includ	-1583
▁tun	-1584
werb	-1585
▁Mad	-1586
▁energy	-1587
äm	-1588
ater	-1589
▁help	-1590
king	-1591
ürlich	-1592
geord	-1593
hip	-1594
strument	-1595
▁Problem	-1596
▁prom	-1597
reaty	-1598
rü	-1599
ften	-1600
▁maj	-1601
▁neue	-1602
air	-1603
ount	-1604
fter	-1605
ium	-1606
▁means	-1607
äng	-1608
▁Fraktion	-1609
▁Beit	-1610
gangen	-1611
▁seine	-1612
▁information	-1613
fung	-1614
▁andere	-1615
▁All	-1616
tellt	-1617
ade	-1618
▁est	-1619
▁gent	-1620
adies	-1621
punkt	-1622
▁wissen	-1623
halts	-1624
ho	-1625
▁implement	-1626
▁example	-1627
vour	-1628
▁Program	-1629
▁invol	-1630
geordne	-1631
lichkeit	-1632
▁action	-1633
▁gentlemen	-1634
loyment	-1635
▁Jahren	-1636
▁ange	-1637
▁Unternehmen	-1638
nisse	-1639
▁Ind	-1640
gar	-1641
▁Richtlinie	-1642
▁legal	-1643
üß	-1644
ache	-1645
▁without	-1646
ordin	-1647
▁trans	-1648
ether	-1649
▁aller	-1650
ages	-1651
▁Teil	-1652
▁industr	-1653
ret	-1654
ollow	-1655
bat	-1656
▁car	-1657
ules	-1658
erk	-1659
lungs	-1660
lex	-1661
▁House	-1662
oti	-1663
▁Au	-1664
▁erw	-1665
▁far	-1666
▁however	-1667
anken	-1668
▁wäre	-1669
▁protection	-1670
▁Proble	-1671
▁full	-1672
▁problems	-1673
hol	-1674
aben	-1675
▁If	-1676
ichts	-1677
org	-1678
ktor	-1679
tra	-1680
spolitik	-1681
gress	-1682
▁directive	-1683
▁nun	-1684
own	-1685
aff	-1686
▁gef	-1687
ability	-1688
träge	-1689
come	-1690
antrag	-1691
ettbe	-1692
politik	-1693
▁Entscheid	-1694
ialog	-1695
▁allow	-1696
▁access	-1697
utung	-1698
▁rat	-1699
▁global	-1700
als	-1701
▁ref	-1702
▁Möglichkeit	-1703
▁negoti	-1704
grund	-1705
ks	-1706
tend	-1707
entral	-1708
hungen	-1709
▁He	-1710
ettbewerb	-1711
▁call	-1712
▁Fall	-1713
▁Madam	-1714
ämp	-1715
markt	-1716
▁opport	-1717
▁ke	-1718
ppen	-1719
▁necessary	-1720
▁einmal	-1721
▁particularly	-1722
ately	-1723
ablish	-1724
▁meiner	-1725
▁before	-1726
▁schon	-1727
neh	-1728
igten	-1729
▁Abgeordne	-1730
fit	-1731
▁long	-1732
▁glau	-1733
spro	-1734
▁Entschließ	-1735
▁Ha	-1736
ace	-1737
undheit	-1738
unden	-1739
agt	-1740
▁Namen	-1741
wirtschaft	-1742
illion	-1743
200	-1744
legt	-1745
▁give	-1746
▁Ländern	-1747
▁invest	-1748
▁set	-1749
walt	-1750
▁issues	-1751
resent	-1752
itiative	-1753
▁Russ	-1754
▁Präsidentin	-1755
▁Is	-1756
▁ur	-1757
▁wicht	-1758
▁wish	-1759
ence	-1760
▁follow	-1761
abil	-1762
▁present	-1763
▁zwei	-1764
▁Regierung	-1765
ality	-1766
▁favour	-1767
lus	-1768
▁areas	-1769
uktur	-1770
▁resolution	-1771
upt	-1772
▁given	-1773
▁Fl	-1774
lle	-1775
▁differ	-1776
▁health	-1777
ys	-1778
führt	-1779
▁position	-1780
ölk	-1781
▁schw	-1782
▁Was	-1783
ifft	-1784
ilfe	-1785
▁security	-1786
▁Energie	-1787
▁consum	-1788
rimin	-1789
▁Thema	-1790
ende	-1791
▁Treaty	-1792
▁klar	-1793
▁establish	-1794
▁größ	-1795
stimmung	-1796
flicht	-1797
▁besch	-1798
▁Mill	-1799
kon	-1800
▁Bede	-1801
lick	-1802
ep	-1803
sprache	-1804
▁Situation	-1805
▁Group	-1806
▁Bet	-1807
ärk	-1808
▁min	-1809
ically	-1810
▁av	-1811
ren	-1812
▁auß	-1813
▁sector	-1814
▁further	-1815
▁Verbrauch	-1816
▁proced	-1817
ders	-1818
une	-1819
▁politischen	-1820
idency	-1821
▁bess	-1822
▁women	-1823
ying	-1824
ivil	-1825
gese	-1826
rif	-1827
mework	-1828
ward	-1829
▁Bedeutung	-1830
▁darüber	-1831
▁US	-1832
▁Fragen	-1833
▁viele	-1834
immen	-1835
▁Frauen	-1836
▁supp	-1837
gleich	-1838
▁voll	-1839
▁meet	-1840
▁etwas	-1841
▁europäische	-1842
▁besonder	-1843
▁difficult	-1844
ziel	-1845
▁Meinung	-1846
▁Lage	-1847
▁Vertrag	-1848
folg	-1849
luss	-1850
▁whether	-1851
deut	-1852
hang	-1853
▁Schutz	-1854
stand	-1855
▁Minister	-1856
sibility	-1857
▁worden	-1858
beral	-1859
▁change	-1860
▁On	-1861
▁require	-1862
abei	-1863
▁amendments	-1864
▁At	-1865
▁eing	-1866
▁deut	-1867
▁Members	-1868
▁ladies	-1869
▁notwend	-1870
ph	-1871
▁cre	-1872
▁Rates	-1873
gricult	-1874
▁entsp	-1875
riften	-1876
▁ihren	-1877
▁6	-1878
▁simp	-1879
▁decision	-1880
▁öffent	-1881
▁commit	-1882
estimmt	-1883
rän	-1884
isions	-1885
▁besteht	-1886
vement	-1887
▁opin	-1888
ible	-1889
▁Zukunft	-1890
▁integr	-1891
▁Lös	-1892
▁geb	-1893
half	-1894
▁geben	-1895
sequ	-1896
▁Intern	-1897
▁unterstützen	-1898
▁equ	-1899
stellung	-1900
iele	-1901
▁United	-1902
ased	-1903
falls	-1904
ienst	-1905
▁pow	-1906
▁express	-1907
▁product	-1908
▁inde	-1909
▁behalf	-1910
▁represent	-1911
▁bed	-1912
urs	-1913
bene	-1914
orgen	-1915
vorsch	-1916
▁Stand	-1917
▁role	-1918
führung	-1919
▁contrib	-1920
▁sm	-1921
amil	-1922
gre	-1923
inder	-1924
▁since	-1925
▁kommen	-1926
▁dra	-1927
▁Staaten	-1928
▁ze	-1929
itor	-1930
▁ter	-1931
▁proposals	-1932
stan	-1933
▁daher	-1934
▁result	-1935
▁med	-1936
ird	-1937
▁programme	-1938
▁Probleme	-1939
▁begrüß	-1940
äuß	-1941
idar	-1942
ünft	-1943
▁Bes	-1944
▁terms	-1945
▁Tran	-1946
▁serious	-1947
▁provid	-1948
▁basis	-1949
▁form	-1950
▁seit	-1951
▁cond	-1952
▁cris	-1953
▁aid	-1954
▁Haushalts	-1955
▁Fort	-1956
▁wirklich	-1957
▁stren	-1958
▁betr	-1959
▁next	-1960
racht	-1961
▁services	-1962
▁trade	-1963
▁Auß	-1964
▁progress	-1965
▁different	-1966
zess	-1967
eld	-1968
ategie	-1969
ood	-1970
wirk	-1971
gest	-1972
kämp	-1973
-0	-1974
▁pract	-1975
▁Gebie	-1976
▁natürlich	-1977
▁brauch	-1978
other	-1979
▁zurück	-1980
▁Fisch	-1981
miss	-1982
▁crit	-1983
▁effort	-1984
▁agree	-1985
▁rules	-1986
▁Wettbewerb	-1987
▁done	-1988
läge	-1989
leicht	-1990
▁val	-1991
ierten	-1992
▁gel	-1993
▁po	-1994
wards	-1995
zept	-1996
▁erforder	-1997
▁Zusammenhang	-1998
▁deal	-1999
ante	-2000
▁come	-2001
▁pri	-2002
agement	-2003
▁speak	-2004
wert	-2005
ichte	-2006
▁regional	-2007
▁aim	-2008
ährend	-2009
▁adopted	-2010
osition	-2011
▁gesagt	-2012
von	-2013
▁Rolle	-2014
gew	-2015
▁Aussprache	-2016
fach	-2017
▁Pr	-2018
▁Am	-2019
ganisation	-2020
▁Kolleg	-2021
▁framework	-2022
▁look	-2023
urn	-2024
▁wes	-2025
▁contro	-2026
▁legislation	-2027
▁Deshalb	-2028
▁better	-2029
▁ir	-2030
zü	-2031
▁außer	-2032
▁zwar	-2033
▁Gen	-2034
ale	-2035
▁colle	-2036
▁instit	-2037
erien	-2038
▁imm	-2039
▁approach	-2040
▁seiner	-2041
▁eigen	-2042
reffen	-2043
ierungs	-2044
tain	-2045
ught	-2046
rieden	-2047
ude	-2048
▁zusammen	-2049
rodu	-2050
ämlich	-2051
▁Ma	-2052
▁7	-2053
▁Änderungsan	-2054
dert	-2055
▁But	-2056
▁glaube	-2057
▁needs	-2058
▁nämlich	-2059
▁Ergeb	-2060
▁What	-2061
br	-2062
▁201	-2063
ote	-2064
▁stehen	-2065
spr	-2066
amental	-2067
▁back	-2068
▁after	-2069
▁8	-2070
▁abs	-2071
▁Red	-2072
▁komm	-2073
par	-2074
▁clos	-2075
▁Schw	-2076
iben	-2077
▁crisis	-2078
▁lang	-2079
▁Disk	-2080
▁second	-2081
ines	-2082
glichen	-2083
▁Produ	-2084
▁Besch	-2085
▁fol	-2086
ünd	-2087
bed	-2088
▁Demokrat	-2089
man	-2090
▁Chin	-2091
▁letzten	-2092
aren	-2093
▁continue	-2094
▁whole	-2095
itt	-2096
▁opinion	-2097
▁mention	-2098
annt	-2099
▁Verhand	-2100
ccess	-2101
▁institutions	-2102
edom	-2103
▁plan	-2104
▁Sozial	-2105
▁Ne	-2106
imes	-2107
▁unseren	-2108
▁grow	-2109
▁einge	-2110
onds	-2111
▁subject	-2112
elle	-2113
▁ide	-2114
ising	-2115
▁gegenüber	-2116
▁erm	-2117
▁project	-2118
▁finanz	-2119
llschaft	-2120
vious	-2121
weisen	-2122
▁Abstimmung	-2123
ystems	-2124
▁Ansicht	-2125
häng	-2126
▁Markt	-2127
gaben	-2128
▁statt	-2129
▁Gleich	-2130
ahre	-2131
▁tal	-2132
▁Information	-2133
▁job	-2134
000	-2135
▁resour	-2136
▁pl	-2137
▁dür	-2138
▁agricult	-2139
▁concerned	-2140
▁accept	-2141
▁positive	-2142
ikel	-2143
ervor	-2144
ference	-2145
▁person	-2146
▁Br	-2147
▁Seit	-2148
▁gewähr	-2149
20	-2150
▁going	-2151
▁davon	-2152
▁Vol	-2153
▁Debat	-2154
blick	-2155
ife	-2156
▁Fol	-2157
▁Fre	-2158
▁Beschäft	-2159
overnment	-2160
▁member	-2161
entlich	-2162
▁verschieden	-2163
▁forward	-2164
▁9	-2165
▁bro	-2166
▁eben	-2167
leist	-2168
ents	-2169
ratic	-2170
ething	-2171
▁Bel	-2172
legenheit	-2173
merk	-2174
hält	-2175
iving	-2176
ified	-2177
▁ander	-2178
▁Verbraucher	-2179
▁hät	-2180
wär	-2181
fäh	-2182
ritte	-2183
▁poin	-2184
▁betrifft	-2185
ound	-2186
▁State	-2187
▁Gesundheit	-2188
ively	-2189
▁tax	-2190
▁bene	-2191
▁zweit	-2192
ler	-2193
▁extre	-2194
▁three	-2195
▁cap	-2196
▁Bar	-2197
fte	-2198
▁underst	-2199
bere	-2200
▁sens	-2201
▁Verantwort	-2202
fet	-2203
ually	-2204
wendung	-2205
▁hervor	-2206
▁cost	-2207
▁account	-2208
ilit	-2209
ists	-2210
▁Bei	-2211
▁few	-2212
▁soc	-2213
▁rev	-2214
▁Weise	-2215
▁Tur	-2216
▁towards	-2217
▁Ange	-2218
schied	-2219
atives	-2220
racy	-2221
▁könnte	-2222
fety	-2223
ingungen	-2224
▁transport	-2225
▁Menschenrechte	-2226
▁Mehr	-2227
▁anges	-2228
itäten	-2229
ried	-2230
▁welcome	-2231
▁Punkt	-2232
▁something	-2233
▁pay	-2234
arante	-2235
▁del	-2236
▁open	-2237
ivid	-2238
▁adv	-2239
gether	-2240
ases	-2241
rachten	-2242
▁working	-2243
▁Europas	-2244
▁bal	-2245
▁remain	-2246
▁Wirtschafts	-2247
▁EUR	-2248
▁step	-2249
TO	-2250
▁Dar	-2251
nov	-2252
▁dan	-2253
▁Aber	-2254
ustrie	-2255
allen	-2256
▁bew	-2257
chan	-2258
▁daran	-2259
▁vi	-2260
▁Herren	-2261
ont	-2262
▁10	-2263
▁Sol	-2264
▁voted	-2265
ivers	-2266
▁Lebens	-2267
▁Not	-2268
rise	-2269
ath	-2270
ächst	-2271
pecial	-2272
/200	-2273
▁drei	-2274
▁stellen	-2275
▁freedom	-2276
term	-2277
▁control	-2278
▁guarante	-2279
hall	-2280
▁resources	-2281
▁principle	-2282
ways	-2283
▁cor	-2284
staat	-2285
▁defin	-2286
iness	-2287
ilt	-2288
ativen	-2289
ffair	-2290
ctions	-2291
so	-2292
▁Weg	-2293
▁specific	-2294
▁small	-2295
▁hoffe	-2296
elf	-2297
fort	-2298
▁Wahl	-2299
▁Ums	-2300
schutz	-2301
▁Part	-2302
prochen	-2303
▁var	-2304
▁ja	-2305
▁conditions	-2306
▁aw	-2307
▁führen	-2308
igkeiten	-2309
schaften	-2310
genda	-2311
emp	-2312
griff	-2313
ierte	-2314
▁child	-2315
▁govern	-2316
▁UN	-2317
▁ble	-2318
▁Kontro	-2319
▁current	-2320
▁compan	-2321
▁Und	-2322
▁ess	-2323
liegen	-2324
▁commun	-2325
▁Forsch	-2326
▁including	-2327
▁risk	-2328
▁success	-2329
▁introdu	-2330
▁parl	-2331
▁down	-2332
▁Fortsch	-2333
▁Stra	-2334
zip	-2335
▁darf	-2336
▁relations	-2337
urz	-2338
▁Li	-2339
▁importance	-2340
▁regul	-2341
▁während	-2342
▁umf	-2343
zahl	-2344
▁shall	-2345
umen	-2346
earch	-2347
▁proposed	-2348
▁dabei	-2349
▁opportunity	-2350
▁Institution	-2351
▁research	-2352
▁Gesetz	-2353
▁Beispiel	-2354
▁did	-2355
▁exist	-2356
▁große	-2357
rift	-2358
▁deren	-2359
▁Man	-2360
▁really	-2361
iar	-2362
▁Rep	-2363
▁Lis	-2364
ähl	-2365
▁vorgesch	-2366
druck	-2367
komm	-2368
▁employment	-2369
▁essential	-2370
utet	-2371
▁direct	-2372
▁Vorschläge	-2373
▁Jahre	-2374
▁waren	-2375
ktiv	-2376
▁nationalen	-2377
▁Presidency	-2378
▁million	-2379
▁Ihre	-2380
han	-2381
▁Damen	-2382
▁Bezug	-2383
▁Zug	-2384
▁used	-2385
ling	-2386
▁bus	-2387
▁policies	-2388
uge	-2389
▁authorities	-2390
▁together	-2391
ared	-2392
▁socie	-2393
▁Änderungsantrag	-2394
ffairs	-2395
▁general	-2396
▁provide	-2397
▁politische	-2398
gung	-2399
rank	-2400
▁Durch	-2401
sichtig	-2402
att	-2403
dings	-2404
▁gesam	-2405
▁fundamental	-2406
▁increase	-2407
▁state	-2408
pend	-2409
▁especial	-2410
▁bestehen	-2411
wärt	-2412
▁näch	-2413
rech	-2414
ek	-2415
▁Transp	-2416
▁especially	-2417
▁Viel	-2418
spräsident	-2419
▁äuß	-2420
gelegt	-2421
▁third	-2422
▁Bem	-2423
gabe	-2424
▁Rechte	-2425
▁sowohl	-2426
ogen	-2427
▁during	-2428
ises	-2429
▁Ex	-2430
ildung	-2431
ropri	-2432
bau	-2433
aussch	-2434
▁Lu	-2435
▁large	-2436
▁Artikel	-2437
▁lassen	-2438
▁Kolleginnen	-2439
ander	-2440
▁darin	-2441
▁bef	-2442
▁regulation	-2443
▁Lösung	-2444
▁peace	-2445
▁oper	-2446
▁read	-2447
▁strategy	-2448
▁less	-2449
unehmen	-2450
▁industry	-2451
▁Debatte	-2452
pflicht	-2453
armon	-2454
▁negotiations	-2455
▁erst	-2456
▁gest	-2457
▁Dienst	-2458
ock	-2459
▁bestimm	-2460
▁recog	-2461
▁understand	-2462
recht	-2463
▁Ebene	-2464
▁gehör	-2465
▁brauchen	-2466
gestellt	-2467
▁clearly	-2468
text	-2469
▁besonders	-2470
▁reform	-2471
icient	-2472
▁priv	-2473
▁activ	-2474
▁15	-2475
▁environmental	-2476
▁Umsetzung	-2477
treten	-2478
▁ihnen	-2479
hörden	-2480
ners	-2481
▁Abgeordneten	-2482
▁least	-2483
unde	-2484
▁products	-2485
▁bringen	-2486
iver	-2487
▁another	-2488
▁internationalen	-2489
▁become	-2490
aum	-2491
▁greater	-2492
▁itself	-2493
▁responsibility	-2494
▁safety	-2495
▁No	-2496
fra	-2497
zw	-2498
▁quite	-2499
oting	-2500
ferenz	-2501
ationen	-2502
▁Tats	-2503
▁steht	-2504
▁Demokratie	-2505
illeg	-2506
▁vorgeschlagen	-2507
astr	-2508
▁suff	-2509
völk	-2510
rael	-2511
▁lea	-2512
▁000	-2513
lein	-2514
▁viol	-2515
▁Person	-2516
ters	-2517
irm	-2518
enzen	-2519
▁rather	-2520
▁derzeit	-2521
▁cult	-2522
vest	-2523
▁inner	-2524
▁reach	-2525
▁strengt	-2526
▁gemeinsamen	-2527
ged	-2528
verkehr	-2529
▁Auch	-2530
iod	-2531
▁inform	-2532
▁comple	-2533
▁12	-2534
▁recht	-2535
▁Ger	-2536
hung	-2537
▁China	-2538
▁They	-2539
▁extrem	-2540
use	-2541
▁Entwicklungs	-2542
bon	-2543
▁terror	-2544
ifen	-2545
▁liegt	-2546
▁show	-2547
▁dürfen	-2548
tellen	-2549
▁Frei	-2550
▁bek	-2551
teilung	-2552
▁konk	-2553
▁großen	-2554
▁absol	-2555
▁el	-2556
▁business	-2557
▁demokrat	-2558
▁erhalten	-2559
asing	-2560
maß	-2561
▁det	-2562
▁danken	-2563
ize	-2564
▁Fe	-2565
▁Afr	-2566
▁lead	-2567
geln	-2568
▁Med	-2569
▁hinaus	-2570
▁illeg	-2571
ule	-2572
▁Wer	-2573
raum	-2574
hnt	-2575
▁cl	-2576
▁addition	-2577
▁ans	-2578
▁verbess	-2579
▁Binnen	-2580
hö	-2581
▁democracy	-2582
▁demand	-2583
▁always	-2584
▁Zahl	-2585
▁opp	-2586
gement	-2587
▁organis	-2588
igr	-2589
▁ev	-2590
ziehungen	-2591
▁regions	-2592
wand	-2593
▁dr	-2594
▁individ	-2595
▁instrument	-2596
unächst	-2597
▁appropri	-2598
▁Hinblick	-2599
oney	-2600
yp	-2601
▁These	-2602
▁sozialen	-2603
▁Millionen	-2604
mes	-2605
ross	-2606
▁once	-2607
▁making	-2608
▁event	-2609
▁power	-2610
▁bu	-2611
▁attention	-2612
▁institution	-2613
oten	-2614
▁enc	-2615
iesen	-2616
oment	-2617
▁offen	-2618
▁Fund	-2619
ingle	-2620
▁deutlich	-2621
▁einzel	-2622
▁Pl	-2623
▁effective	-2624
▁Eine	-2625
ator	-2626
gemein	-2627
▁weiterhin	-2628
▁Gegen	-2629
▁benefit	-2630
▁nie	-2631
reg	-2632
▁things	-2633
▁Ihr	-2634
▁Asp	-2635
▁Hilfe	-2636
▁2000	-2637
▁interests	-2638
▁let	-2639
▁internal	-2640
▁achieve	-2641
esen	-2642
icle	-2643
▁start	-2644
▁deshalb	-2645
▁free	-2646
▁berück	-2647
ierungen	-2648
▁gerade	-2649
▁Fischere	-2650
▁society	-2651
▁Zust	-2652
bour	-2653
stehen	-2654
ension	-2655
inzip	-2656
iation	-2657
▁taking	-2658
utzen	-2659
▁genau	-2660
DE	-2661
▁lim	-2662
▁major	-2663
scheiden	-2664
though	-2665
▁innerhalb	-2666
▁welche	-2667
ennt	-2668
duc	-2669
▁implementation	-2670
▁based	-2671
▁Erklär	-2672
kämpfung	-2673
▁Uns	-2674
▁Tür	-2675
nehmer	-2676
▁Arbeitsp	-2677
▁government	-2678
sto	-2679
▁gestimmt	-2680
▁democratic	-2681
▁denke	-2682
bereich	-2683
▁Daher	-2684
ification	-2685
▁technolog	-2686
▁Pol	-2687
net	-2688
▁Ho	-2689
gesehen	-2690
▁Ausschusses	-2691
▁Entschließung	-2692
örderung	-2693
▁je	-2694
▁Verhandlungen	-2695
▁beim	-2696
▁Grün	-2697
▁play	-2698
▁Ziele	-2699
stum	-2700
▁food	-2701
ktionen	-2702
ry	-2703
▁gemeinsame	-2704
isher	-2705
▁money	-2706
ustain	-2707
▁economy	-2708
▁bor	-2709
eits	-2710
achstum	-2711
▁sollen	-2712
▁11	-2713
▁Verantwortung	-2714
▁ben	-2715
▁members	-2716
ekte	-2717
▁struct	-2718
▁erreichen	-2719
▁efforts	-2720
▁nor	-2721
▁einigen	-2722
▁various	-2723
▁angenommen	-2724
▁def	-2725
aps	-2726
▁adopt	-2727
▁alles	-2728
old	-2729
▁signific	-2730
utes	-2731
▁Zwe	-2732
▁ersten	-2733
▁strong	-2734
yl	-2735
▁milit	-2736
sid	-2737
▁Abkommen	-2738
▁rece	-2739
row	-2740
▁Verf	-2741
▁Ende	-2742
▁text	-2743
▁points	-2744
▁fight	-2745
wirkungen	-2746
▁refer	-2747
immt	-2748
▁Entscheidung	-2749
zustellen	-2750
▁handelt	-2751
iens	-2752
▁zust	-2753
zen	-2754
▁aspect	-2755
▁fun	-2756
▁prevent	-2757
▁Verordnung	-2758
kei	-2759
▁fiel	-2760
▁hist	-2761
▁wichtige	-2762
zogen	-2763
inistr	-2764
sichtlich	-2765
llig	-2766
ably	-2767
▁Invest	-2768
sweise	-2769
▁each	-2770
▁ple	-2771
▁Ital	-2772
hil	-2773
züglich	-2774
▁aufge	-2775
▁Verbess	-2776
reicht	-2777
▁address	-2778
ily	-2779
▁Grundlage	-2780
▁Nat	-2781
erecht	-2782
▁Pre	-2783
▁ern	-2784
spect	-2785
▁occ	-2786
▁yet	-2787
▁words	-2788
heb	-2789
ifiz	-2790
▁month	-2791
▁Strategie	-2792
▁Verfahren	-2793
gang	-2794
reten	-2795
▁-,	-2796
ika	-2797
▁colleag	-2798
ateral	-2799
▁finden	-2800
zeitig	-2801
▁procedure	-2802
▁mult	-2803
letz	-2804
bei	-2805
▁applic	-2806
sätz	-2807
has	-2808
▁notwendig	-2809
▁ermö	-2810
▁Erweit	-2811
▁enlar	-2812
▁writ	-2813
gent	-2814
▁schaffen	-2815
▁committee	-2816
gesetzt	-2817
▁Verkehr	-2818
▁while	-2819
ness	-2820
▁non	-2821
▁gewährle	-2822
/9	-2823
▁grund	-2824
ko	-2825
▁Regionen	-2826
▁accord	-2827
▁period	-2828
▁einfach	-2829
▁press	-2830
▁Komp	-2831
▁Bevölk	-2832
▁Dire	-2833
ining	-2834
▁werde	-2835
▁solche	-2836
grat	-2837
▁Amer	-2838
ilateral	-2839
▁region	-2840
ics	-2841
▁involved	-2842
▁Rück	-2843
▁hö	-2844
gern	-2845
▁partners	-2846
ean	-2847
▁versuch	-2848
▁mod	-2849
▁And	-2850
▁Amend	-2851
▁sprechen	-2852
▁creat	-2853
▁erziel	-2854
▁Institutionen	-2855
▁Pal	-2856
▁air	-2857
▁single	-2858
▁Interess	-2859
gegen	-2860
thing	-2861
▁Tatsache	-2862
▁beiden	-2863
▁competition	-2864
▁Diskuss	-2865
lück	-2866
▁parliament	-2867
▁Emp	-2868
▁Wor	-2869
ufen	-2870
▁ak	-2871
schein	-2872
▁weitere	-2873
▁Binnenmarkt	-2874
kes	-2875
▁sustain	-2876
▁adm	-2877
▁growth	-2878
▁EC	-2879
rechts	-2880
▁Form	-2881
▁funds	-2882
verständ	-2883
ländern	-2884
▁happen	-2885
▁gilt	-2886
öt	-2887
▁To	-2888
istan	-2889
eder	-2890
▁entwick	-2891
▁pers	-2892
▁concerns	-2893
▁Auswirkungen	-2894
cen	-2895
▁kurz	-2896
▁besser	-2897
▁gemacht	-2898
▁short	-2899
▁Gew	-2900
▁challen	-2901
▁seem	-2902
▁Rom	-2903
ikan	-2904
▁having	-2905
gratul	-2906
▁würden	-2907
▁Government	-2908
▁eng	-2909
unter	-2910
▁entsprechen	-2911
▁Affairs	-2912
▁Haushalt	-2913
esellschaft	-2914
▁Dank	-2915
▁Zugang	-2916
prü	-2917
▁strengthen	-2918
alen	-2919
▁nichts	-2920
setzung	-2921
agen	-2922
▁programmes	-2923
ächlich	-2924
linien	-2925
▁Israel	-2926
▁companies	-2927
▁Wort	-2928
▁Frieden	-2929
▁Ausdruck	-2930
ppe	-2931
▁among	-2932
▁fair	-2933
zuf	-2934
▁beispiel	-2935
icial	-2936
abon	-2937
alled	-2938
▁civil	-2939
rück	-2940
▁indem	-2941
▁USA	-2942
▁congratul	-2943
isches	-2944
ller	-2945
▁pop	-2946
akt	-2947
ialogue	-2948
▁Jahres	-2949
▁agreements	-2950
▁individual	-2951
▁sum	-2952
issabon	-2953
ortug	-2954
▁educ	-2955
abhäng	-2956
▁objectives	-2957
▁Mar	-2958
▁euro	-2959
▁Proj	-2960
merksam	-2961
▁Just	-2962
Fra	-2963
▁Lissabon	-2964
unkte	-2965
az	-2966
ichten	-2967
▁unterstützt	-2968
▁force	-2969
▁resul	-2970
▁children	-2971
▁entscheiden	-2972
▁Lisbon	-2973
▁workers	-2974
▁för	-2975
▁kommt	-2976
▁encour	-2977
▁draft	-2978
▁stellt	-2979
imme	-2980
▁treat	-2981
▁avail	-2982
fehl	-2983
▁Informationen	-2984
▁majority	-2985
▁conclus	-2986
▁quality	-2987
erseits	-2988
▁Reform	-2989
▁standards	-2990
hing	-2991
onger	-2992
▁mot	-2993
▁fully	-2994
▁emphas	-2995
▁care	-2996
▁ann	-2997
▁amendment	-2998
▁Prot	-2999
▁ebenfalls	-3000
▁led	-3001
amt	-3002
▁Struktur	-3003
ären	-3004
▁darum	-3005
▁dort	-3006
▁keinen	-3007
hes	-3008
ify	-3009
key	-3010
deutet	-3011
▁Ir	-3012
▁solution	-3013
ica	-3014
▁Verpflicht	-3015
haltung	-3016
▁statement	-3017
▁enter	-3018
▁Terror	-3019
▁Auff	-3020
leit	-3021
▁increasing	-3022
▁Woch	-3023
ließlich	-3024
▁often	-3025
▁certainly	-3026
fern	-3027
▁erne	-3028
ove	-3029
affung	-3030
▁following	-3031
ix	-3032
igration	-3033
▁weniger	-3034
▁disk	-3035
▁mean	-3036
▁With	-3037
low	-3038
▁decisions	-3039
▁Erweiterung	-3040
▁loc	-3041
▁vielen	-3042
▁Wettbewerbs	-3043
▁simply	-3044
▁mind	-3045
▁feel	-3046
▁beispielsweise	-3047
▁restr	-3048
fonds	-3049
▁heiß	-3050
▁sur	-3051
yn	-3052
▁Interesse	-3053
▁Ratspräsident	-3054
ultur	-3055
ceed	-3056
▁Außen	-3057
▁recent	-3058
vorschriften	-3059
▁Sitz	-3060
▁eigenen	-3061
rotz	-3062
▁agricultural	-3063
over	-3064
▁Förderung	-3065
▁obl	-3066
▁Türkei	-3067
▁akzept	-3068
▁Als	-3069
frage	-3070
fs	-3071
▁dessen	-3072
▁Turkey	-3073
▁aware	-3074
▁verschiedenen	-3075
▁schwier	-3076
andid	-3077
▁seinen	-3078
▁extremely	-3079
▁vis	-3080
▁Behörden	-3081
▁lab	-3082
▁Beziehungen	-3083
▁Tages	-3084
▁sehen	-3085
▁kind	-3086
▁Kinder	-3087
▁production	-3088
idence	-3089
▁hatte	-3090
lätz	-3091
▁men	-3092
▁First	-3093
▁vielleicht	-3094
verfahren	-3095
▁System	-3096
▁Kommissarin	-3097
▁ü	-3098
▁ant	-3099
▁gegenwärt	-3100
▁beit	-3101
▁groups	-3102
▁Krit	-3103
per	-3104
haps	-3105
ians	-3106
chnolog	-3107
▁Vereinigten	-3108
▁schrift	-3109
▁bedeutet	-3110
▁dialogue	-3111
benso	-3112
iges	-3113
▁significant	-3114
▁Parte	-3115
▁teil	-3116
▁Notwend	-3117
istet	-3118
finden	-3119
▁gar	-3120
frastr	-3121
ßen	-3122
ipf	-3123
▁communic	-3124
▁nehmen	-3125
▁gegeben	-3126
▁Vertre	-3127
▁stärk	-3128
alität	-3129
rior	-3130
▁particip	-3131
▁25	-3132
▁create	-3133
▁Geld	-3134
ning	-3135
▁protect	-3136
▁ret	-3137
▁Region	-3138
▁Erachten	-3139
lev	-3140
ommend	-3141
▁Schaffung	-3142
▁Erachtens	-3143
▁schne	-3144
▁coordin	-3145
▁Text	-3146
▁Stabil	-3147
round	-3148
▁Kos	-3149
▁administr	-3150
lexib	-3151
▁Kosten	-3152
twort	-3153
erman	-3154
▁pass	-3155
▁fish	-3156
▁lack	-3157
▁Antwort	-3158
▁Gesch	-3159
jen	-3160
enten	-3161
▁context	-3162
▁Organisation	-3163
▁tats	-3164
▁trad	-3165
▁might	-3166
▁farm	-3167
▁tot	-3168
▁arbeit	-3169
▁comprom	-3170
ourt	-3171
▁actually	-3172
▁humanit	-3173
▁Beschäftigung	-3174
itionen	-3175
▁Dialog	-3176
eign	-3177
▁ago	-3178
▁questions	-3179
erb	-3180
▁assess	-3181
▁complete	-3182
▁initiative	-3183
com	-3184
stru	-3185
▁states	-3186
▁table	-3187
bereit	-3188
▁dat	-3189
▁developing	-3190
Fraktion	-3191
▁life	-3192
kten	-3193
▁ear	-3194
▁Ira	-3195
fortun	-3196
iellen	-3197
ausschuss	-3198
▁öffentlichen	-3199
▁Interessen	-3200
ikt	-3201
äd	-3202
eless	-3203
▁objective	-3204
umente	-3205
▁available	-3206
▁Beitrag	-3207
forderungen	-3208
▁joint	-3209
ined	-3210
▁Partner	-3211
▁famil	-3212
orted	-3213
▁zahl	-3214
▁recommend	-3215
its	-3216
▁sure	-3217
▁mentioned	-3218
▁impact	-3219
▁Ur	-3220
▁enlargement	-3221
▁opt	-3222
▁Standpunkt	-3223
▁erreicht	-3224
▁jobs	-3225
limate	-3226
▁doc	-3227
▁gute	-3228
▁sogar	-3229
mäß	-3230
▁others	-3231
▁Let	-3232
▁Prior	-3233
setzen	-3234
ented	-3235
▁Kons	-3236
gency	-3237
äs	-3238
▁Min	-3239
▁14	-3240
▁Rei	-3241
▁abge	-3242
ziehen	-3243
▁Wo	-3244
fang	-3245
▁aufgrund	-3246
ode	-3247
ichtet	-3248
▁erforderlich	-3249
▁sei	-3250
▁hätte	-3251
▁Notwendigkeit	-3252
▁erklär	-3253
▁prec	-3254
▁terr	-3255
▁Court	-3256
▁Article	-3257
▁Forschung	-3258
▁monitor	-3259
▁indeed	-3260
▁Industrie	-3261
▁äußerst	-3262
osed	-3263
▁apply	-3264
▁special	-3265
▁erste	-3266
▁improve	-3267
▁Tod	-3268
länder	-3269
▁Kamp	-3270
▁Klim	-3271
uc	-3272
▁demon	-3273
dam	-3274
▁verl	-3275
▁moment	-3276
▁bo	-3277
▁Währ	-3278
▁Bedingungen	-3279
▁aff	-3280
splan	-3281
▁consequ	-3282
▁results	-3283
▁nächsten	-3284
▁Kosov	-3285
▁konn	-3286
stant	-3287
▁field	-3288
▁Finally	-3289
▁document	-3290
▁currently	-3291
▁Gebiet	-3292
▁experien	-3293
ichen	-3294
▁found	-3295
▁meeting	-3296
istance	-3297
▁Arbeitsplätz	-3298
▁WTO	-3299
drück	-3300
▁Tag	-3301
mitt	-3302
▁guarantee	-3303
▁Bekämpfung	-3304
▁könnten	-3305
▁appropriate	-3306
▁concerning	-3307
jenigen	-3308
roffen	-3309
▁Stellung	-3310
altung	-3311
▁hon	-3312
▁Komprom	-3313
ubt	-3314
▁Landwirtschaft	-3315
▁Op	-3316
▁Verwalt	-3317
ocus	-3318
▁Bevölkerung	-3319
▁Sub	-3320
hens	-3321
aged	-3322
▁gehen	-3323
▁Schritt	-3324
bt	-3325
wur	-3326
iken	-3327
▁behand	-3328
▁meinen	-3329
indest	-3330
▁Dieser	-3331
▁exc	-3332
igin	-3333
▁innov	-3334
mals	-3335
▁weiß	-3336
▁consumers	-3337
ogra	-3338
▁draw	-3339
▁harmon	-3340
arten	-3341
▁künft	-3342
oss	-3343
ugen	-3344
▁proper	-3345
▁Voraus	-3346
▁klein	-3347
ake	-3348
▁Aufgabe	-3349
anu	-3350
inge	-3351
rete	-3352
ond	-3353
mb	-3354
▁responsible	-3355
▁Anwendung	-3356
▁Wachstum	-3357
▁Solidar	-3358
atten	-3359
▁Dienstleist	-3360
lüs	-3361
mut	-3362
▁wahr	-3363
elves	-3364
▁verst	-3365
▁erinn	-3366
tem	-3367
▁wenig	-3368
▁akt	-3369
frist	-3370
▁Heraus	-3371
arian	-3372
ived	-3373
SE	-3374
▁zus	-3375
enken	-3376
weis	-3377
wh	-3378
▁Russia	-3379
▁30	-3380
▁management	-3381
▁Verbesserung	-3382
fähigkeit	-3383
▁though	-3384
▁thems	-3385
▁themselves	-3386
▁cases	-3387
itiven	-3388
▁doing	-3389
▁recogn	-3390
arbeiten	-3391
▁International	-3392
▁Daten	-3393
▁schriftlich	-3394
teid	-3395
▁allgemein	-3396
▁climate	-3397
ffice	-3398
▁hinsichtlich	-3399
▁months	-3400
▁meines	-3401
▁never	-3402
sitz	-3403
▁Reihe	-3404
▁German	-3405
▁Gemeinschafts	-3406
ieten	-3407
iew	-3408
▁education	-3409
▁Kosovo	-3410
▁diskut	-3411
▁heißt	-3412
▁ihrem	-3413
▁matters	-3414
▁soziale	-3415
).	-3416
▁key	-3417
▁focus	-3418
▁him	-3419
▁wichtigen	-3420
▁systems	-3421
▁data	-3422
cies	-3423
▁eas	-3424
▁verfü	-3425
▁request	-3426
app	-3427
▁fisher	-3428
fordert	-3429
▁Präsidentschaft	-3430
▁needed	-3431
▁dring	-3432
▁Krise	-3433
▁eig	-3434
▁principles	-3435
voll	-3436
▁Portug	-3437
sichtigt	-3438
orth	-3439
▁versch	-3440
▁reasons	-3441
▁Wieder	-3442
▁Erst	-3443
licht	-3444
▁Berichts	-3445
av	-3446
▁Programm	-3447
▁Gesellschaft	-3448
ban	-3449
▁Fortschritte	-3450
▁ident	-3451
ellen	-3452
▁vö	-3453
gangenen	-3454
▁conflic	-3455
▁net	-3456
fragen	-3457
▁thing	-3458
▁Für	-3459
▁My	-3460
▁vers	-3461
▁Integr	-3462
rad	-3463
▁legislative	-3464
teilen	-3465
▁Social	-3466
ination	-3467
▁solidar	-3468
▁stud	-3469
folgen	-3470
▁allerdings	-3471
▁Liberal	-3472
▁Mehrheit	-3473
▁Tagesordnung	-3474
▁tas	-3475
▁jeden	-3476
▁bedeut	-3477
▁2007	-3478
▁Gemeinsam	-3479
▁expect	-3480
▁Ob	-3481
estimmungen	-3482
▁enough	-3483
less	-3484
▁exce	-3485
ativ	-3486
▁disp	-3487
▁13	-3488
weg	-3489
fre	-3490
▁Agr	-3491
▁final	-3492
▁turn	-3493
▁jeder	-3494
▁Sicherheits	-3495
haft	-3496
▁Vertra	-3497
▁contain	-3498
zentr	-3499
▁Kultur	-3500
▁erwä	-3501
oung	-3502
▁eindeut	-3503
▁erfü	-3504
ants	-3505
▁Zweit	-3506
▁fail	-3507
▁day	-3508
uclear	-3509
▁Hier	-3510
bur	-3511
▁parties	-3512
▁keep	-3513
igungs	-3514
▁Aut	-3515
▁reports	-3516
▁ihm	-3517
▁angem	-3518
▁Kontrolle	-3519
▁origin	-3520
lands	-3521
▁regards	-3522
ünf	-3523
▁Vereinbar	-3524
▁projects	-3525
▁compromise	-3526
▁build	-3527
▁zie	-3528
▁Best	-3529
▁begrüße	-3530
▁costs	-3531
lei	-3532
atis	-3533
▁initi	-3534
ody	-3535
ches	-3536
▁Leben	-3537
wür	-3538
annten	-3539
astrop	-3540
▁longer	-3541
atastrop	-3542
▁Second	-3543
▁gehört	-3544
fortunately	-3545
▁bisher	-3546
▁führ	-3547
baren	-3548
asser	-3549
▁Initiative	-3550
schließend	-3551
▁funding	-3552
kommens	-3553
▁nachhalt	-3554
▁achieved	-3555
▁answer	-3556
gramm	-3557
▁entire	-3558
▁maintain	-3559
▁vorliegen	-3560
▁wohl	-3561
zunehmen	-3562
▁Bereichen	-3563
▁Verfü	-3564
▁activities	-3565
▁stark	-3566
▁Nor	-3567
▁halte	-3568
▁Res	-3569
▁fördern	-3570
▁link	-3571
▁absolute	-3572
▁prep	-3573
▁Programme	-3574
atory	-3575
▁Janu	-3576
▁Mal	-3577
▁Richtung	-3578
▁Steuer	-3579
▁Kraft	-3580
▁sever	-3581
▁young	-3582
▁amb	-3583
okoll	-3584
▁ihn	-3585
ators	-3586
▁Ergebnis	-3587
▁Gelegenheit	-3588
imum	-3589
part	-3590
▁unterschied	-3591
▁offer	-3592
▁mor	-3593
▁priority	-3594
▁sag	-3595
stances	-3596
▁halten	-3597
▁Denn	-3598
▁writing	-3599
lant	-3600
ittle	-3601
▁liberal	-3602
▁nam	-3603
▁spiel	-3604
▁Arbeitnehmer	-3605
▁Gewalt	-3606
▁local	-3607
▁verein	-3608
EN	-3609
ides	-3610
▁richtig	-3611
▁folgen	-3612
▁although	-3613
▁commitment	-3614
▁Convention	-3615
worten	-3616
▁idea	-3617
reen	-3618
ielle	-3619
▁ernst	-3620
▁Überein	-3621
llent	-3622
▁sug	-3623
▁transparen	-3624
▁gener	-3625
wegen	-3626
▁anim	-3627
ized	-3628
▁Auffassung	-3629
ände	-3630
richtung	-3631
▁Handel	-3632
▁Handels	-3633
▁grundlegen	-3634
▁land	-3635
angen	-3636
▁jud	-3637
ided	-3638
▁past	-3639
line	-3640
▁little	-3641
▁angemessen	-3642
▁cru	-3643
▁Span	-3644
frei	-3645
spruch	-3646
▁promote	-3647
▁wesent	-3648
▁governments	-3649
▁Pe	-3650
seit	-3651
▁qual	-3652
▁bre	-3653
▁criter	-3654
teilt	-3655
▁einzelnen	-3656
temp	-3657
älle	-3658
▁Agrar	-3659
asst	-3660
▁continu	-3661
▁true	-3662
ringen	-3663
gelung	-3664
peten	-3665
ternal	-3666
▁Stat	-3667
▁gefähr	-3668
arenz	-3669
▁ph	-3670
▁caus	-3671
▁line	-3672
▁Dec	-3673
ences	-3674
▁stress	-3675
hesion	-3676
▁meinem	-3677
▁congratulate	-3678
mor	-3679
schließlich	-3680
onen	-3681
▁due	-3682
▁Geschäft	-3683
by	-3684
▁nothing	-3685
prä	-3686
▁labour	-3687
▁provided	-3688
legenheiten	-3689
▁sustainable	-3690
ims	-3691
verständlich	-3692
maßnahmen	-3693
▁Amendment	-3694
▁excellent	-3695
ürz	-3696
kra	-3697
▁Do	-3698
▁anal	-3699
▁concl	-3700
▁Staats	-3701
einander	-3702
▁europäischer	-3703
▁Fran	-3704
▁oblig	-3705
▁pot	-3706
▁Mitglieder	-3707
▁Bürgerinnen	-3708
▁perhaps	-3709
wan	-3710
greifen	-3711
▁Instrument	-3712
wurf	-3713
ckt	-3714
▁wün	-3715
ingen	-3716
▁Prozess	-3717
stellt	-3718
▁Absch	-3719
ober	-3720
ethod	-3721
legation	-3722
atterin	-3723
gliche	-3724
▁low	-3725
▁nuclear	-3726
▁Kampf	-3727
▁Personen	-3728
standen	-3729
▁vorgesehen	-3730
▁Rights	-3731
▁mar	-3732
ulture	-3733
▁Erklärung	-3734
▁foreign	-3735
▁Transparenz	-3736
til	-3737
▁subsid	-3738
▁Regierungen	-3739
▁umfassen	-3740
▁solidarity	-3741
ällen	-3742
auer	-3743
side	-3744
▁San	-3745
▁Co	-3746
aking	-3747
▁include	-3748
ingt	-3749
▁gelten	-3750
▁bleiben	-3751
wed	-3752
▁gestellt	-3753
▁wirksam	-3754
arte	-3755
▁Sel	-3756
itten	-3757
▁enthalten	-3758
▁item	-3759
FR	-3760
▁previous	-3761
▁Bürgern	-3762
wach	-3763
▁völlig	-3764
lied	-3765
▁vict	-3766
iere	-3767
▁cent	-3768
itim	-3769
usst	-3770
▁gesamten	-3771
▁gewährleisten	-3772
▁regarding	-3773
▁Bemü	-3774
▁agreed	-3775
▁Diskussion	-3776
▁Bank	-3777
istischen	-3778
▁Sektor	-3779
▁obs	-3780
▁Iran	-3781
▁50	-3782
▁ko	-3783
▁tatsächlich	-3784
unities	-3785
verb	-3786
oper	-3787
ully	-3788
▁schnell	-3789
▁makes	-3790
▁Internet	-3791
▁schwer	-3792
aut	-3793
telle	-3794
▁above	-3795
▁share	-3796
▁verhin	-3797
▁aspects	-3798
▁Einführung	-3799
alle	-3800
▁eth	-3801
▁cla	-3802
▁enor	-3803
ritten	-3804
▁Folgen	-3805
burg	-3806
▁zug	-3807
luß	-3808
▁Eng	-3809
▁road	-3810
▁2004	-3811
▁markets	-3812
▁cred	-3813
▁ebenso	-3814
irc	-3815
▁chan	-3816
▁integration	-3817
atic	-3818
▁pat	-3819
▁term	-3820
Office	-3821
cher	-3822
▁Brit	-3823
reiben	-3824
▁indic	-3825
▁seen	-3826
▁Möglichkeiten	-3827
eh	-3828
ott	-3829
▁elect	-3830
▁method	-3831
▁oft	-3832
rok	-3833
▁consumer	-3834
▁Verfügung	-3835
fully	-3836
sprechen	-3837
▁Klima	-3838
▁Bal	-3839
▁Famil	-3840
▁Vorschriften	-3841
▁betroffen	-3842
▁geschlossen	-3843
erc	-3844
▁Fr	-3845
outh	-3846
itäts	-3847
▁agenda	-3848
mitteln	-3849
▁heraus	-3850
ison	-3851
▁Fest	-3852
tin	-3853
▁histor	-3854
▁fall	-3855
▁safe	-3856
▁blo	-3857
▁Selbst	-3858
▁several	-3859
▁transparency	-3860
▁soon	-3861
gu	-3862
▁rest	-3863
utzung	-3864
nehm	-3865
ennung	-3866
▁circ	-3867
▁comb	-3868
missions	-3869
▁Dam	-3870
▁Erfolg	-3871
▁Directive	-3872
imension	-3873
▁Entschließungs	-3874
▁Democ	-3875
lassen	-3876
ritts	-3877
▁Dritt	-3878
▁miss	-3879
▁comes	-3880
mehr	-3881
▁Rats	-3882
gungen	-3883
▁Meine	-3884
▁dist	-3885
▁cover	-3886
▁Our	-3887
▁erfolg	-3888
▁illegal	-3889
▁four	-3890
▁Sitzung	-3891
▁1999	-3892
vors	-3893
iled	-3894
▁pa	-3895
orge	-3896
formen	-3897
▁Außer	-3898
▁intend	-3899
▁contribution	-3900
▁Seite	-3901
▁wirtschaftliche	-3902
änger	-3903
▁zusätz	-3904
▁relation	-3905
▁upon	-3906
▁pur	-3907
▁Position	-3908
▁Nicht	-3909
▁actions	-3910
▁Dok	-3911
▁Vertrags	-3912
▁schein	-3913
▁Pra	-3914
▁richt	-3915
indung	-3916
▁übr	-3917
▁etwa	-3918
▁tomor	-3919
▁tomorrow	-3920
▁verbessern	-3921
▁Entscheidungen	-3922
lik	-3923
ican	-3924
▁sett	-3925
▁response	-3926
▁conv	-3927
chter	-3928
alu	-3929
ledge	-3930
▁population	-3931
▁Empfehl	-3932
ysteme	-3933
▁lange	-3934
▁Rede	-3935
hend	-3936
▁gleichzeitig	-3937
▁technical	-3938
self	-3939
▁morgen	-3940
▁Therefore	-3941
▁Konfl	-3942
▁unver	-3943
selves	-3944
▁network	-3945
tember	-3946
5-0	-3947
▁discussion	-3948
▁Secondly	-3949
folgt	-3950
▁Erzeug	-3951
▁Themen	-3952
▁Per	-3953
▁communication	-3954
atisf	-3955
▁geführt	-3956
▁Aktion	-3957
▁18	-3958
▁2006	-3959
▁nutzen	-3960
ärken	-3961
cr	-3962
▁zunächst	-3963
▁practice	-3964
fert	-3965
▁Integration	-3966
▁values	-3967
pite	-3968
heben	-3969
▁prof	-3970
conomic	-3971
▁hatten	-3972
lt	-3973
▁Sep	-3974
ennen	-3975
▁Luft	-3976
▁welt	-3977
▁angesichts	-3978
pre	-3979
▁September	-3980
cken	-3981
▁2009	-3982
bet	-3983
▁review	-3984
gru	-3985
▁colleagues	-3986
▁unserem	-3987
▁Wes	-3988
▁fünf	-3989
most	-3990
▁move	-3991
▁criteria	-3992
▁Ukra	-3993
▁she	-3994
bare	-3995
nissen	-3996
▁provisions	-3997
▁Zweitens	-3998
▁seems	-3999
organisation	-4000
▁Gipf	-4001
▁investment	-4002
▁existing	-4003
Pro	-4004
▁Außerdem	-4005
▁One	-4006
▁voting	-4007
▁Ansatz	-4008
▁Nov	-4009
▁setzen	-4010
▁crucial	-4011
▁gra	-4012
▁Flug	-4013
▁procedures	-4014
▁star	-4015
▁Weit	-4016
▁wider	-4017
▁Leg	-4018
▁mob	-4019
hof	-4020
▁Koh	-4021
hrist	-4022
▁Geschäfts	-4023
▁pleased	-4024
▁Thank	-4025
stren	-4026
▁Gree	-4027
▁Volks	-4028
▁elections	-4029
▁macht	-4030
edi	-4031
▁erheb	-4032
▁changes	-4033
▁Angelegenheit	-4034
▁2010	-4035
▁movement	-4036
rats	-4037
pendent	-4038
▁stimmen	-4039
▁Kap	-4040
izien	-4041
▁Wirk	-4042
▁post	-4043
▁mechan	-4044
▁refle	-4045
▁gebracht	-4046
▁Vorsitz	-4047
▁beteil	-4048
abkommen	-4049
▁pack	-4050
oren	-4051
▁fordern	-4052
▁avo	-4053
),	-4054
minister	-4055
▁purp	-4056
▁assistance	-4057
ommun	-4058
▁Ausschuß	-4059
▁stability	-4060
▁ourselves	-4061
handlung	-4062
▁Freiheit	-4063
▁tell	-4064
ift	-4065
▁obvious	-4066
▁terrorism	-4067
▁Terrorismus	-4068
arent	-4069
▁Protokoll	-4070
rieg	-4071
ilität	-4072
ins	-4073
▁heut	-4074
▁verw	-4075
▁Kön	-4076
▁poor	-4077
hern	-4078
▁wobei	-4079
▁infl	-4080
▁befür	-4081
ösen	-4082
setz	-4083
liches	-4084
▁profit	-4085
▁Gefahr	-4086
▁violence	-4087
▁Ergebnisse	-4088
▁week	-4089
iers	-4090
▁Nationen	-4091
▁2005	-4092
▁accession	-4093
ließen	-4094
▁bitte	-4095
▁cohesion	-4096
langen	-4097
ienen	-4098
aper	-4099
▁bzw	-4100
lies	-4101
▁relev	-4102
etary	-4103
▁beitragen	-4104
stell	-4105
▁quick	-4106
▁Ris	-4107
arbeitet	-4108
▁seinem	-4109
äst	-4110
▁altern	-4111
▁service	-4112
▁Bestimmungen	-4113
▁prakt	-4114
▁Solidarität	-4115
▁Spra	-4116
▁potential	-4117
▁sit	-4118
▁until	-4119
▁creation	-4120
▁Vers	-4121
istic	-4122
▁Punkte	-4123
▁extend	-4124
▁cho	-4125
▁Bemühungen	-4126
▁Finanzierung	-4127
inne	-4128
▁pover	-4129
▁poverty	-4130
▁Mär	-4131
▁bekannt	-4132
▁Groß	-4133
▁Organ	-4134
▁Schluss	-4135
▁fort	-4136
hilfen	-4137
▁findet	-4138
▁times	-4139
▁carried	-4140
▁talk	-4141
▁everyone	-4142
▁Schul	-4143
reiche	-4144
▁basic	-4145
ehen	-4146
stitutional	-4147
▁corre	-4148
▁weltweit	-4149
rang	-4150
under	-4151
▁repe	-4152
stead	-4153
▁saying	-4154
▁Haupt	-4155
▁sagte	-4156
▁regulations	-4157
▁Regel	-4158
haupt	-4159
▁unemp	-4160
▁employ	-4161
▁char	-4162
▁17	-4163
sichtigen	-4164
di	-4165
▁asked	-4166
▁arbeiten	-4167
'.	-4168
▁gele	-4169
aterial	-4170
▁Aufmerksam	-4171
▁vern	-4172
▁Zeitpunkt	-4173
▁organisations	-4174
▁gee	-4175
▁getan	-4176
▁rein	-4177
▁Armut	-4178
▁Aufmerksamkeit	-4179
orr	-4180
▁tabled	-4181
▁dut	-4182
▁honour	-4183
▁farmers	-4184
▁consequences	-4185
ons	-4186
▁1.	-4187
produ	-4188
▁facil	-4189
vorsitz	-4190
▁fishing	-4191
▁Menschenrechts	-4192
▁appe	-4193
▁November	-4194
▁großer	-4195
▁Russland	-4196
▁conne	-4197
▁vier	-4198
▁ground	-4199
▁Angelegenheiten	-4200
folge	-4201
iglich	-4202
▁private	-4203
▁military	-4204
nern	-4205
▁Dinge	-4206
▁Bildung	-4207
▁solchen	-4208
▁bevor	-4209
▁suffer	-4210
▁leisten	-4211
▁Gru	-4212
ätigkeit	-4213
ourcen	-4214
▁intens	-4215
▁2008	-4216
▁Will	-4217
▁traff	-4218
▁frü	-4219
plan	-4220
▁Initi	-4221
▁Fern	-4222
zeichnet	-4223
▁Völk	-4224
▁held	-4225
gument	-4226
▁betreffen	-4227
ested	-4228
▁Tat	-4229
arf	-4230
▁Kompromiss	-4231
▁increased	-4232
▁verantwort	-4233
ograph	-4234
▁meisten	-4235
▁Präsidenten	-4236
ützen	-4237
▁unseres	-4238
kraft	-4239
▁Ant	-4240
▁relating	-4241
▁komp	-4242
▁2003	-4243
hilfe	-4244
ualität	-4245
▁Augen	-4246
▁namely	-4247
▁application	-4248
ending	-4249
▁sense	-4250
▁cultural	-4251
▁16	-4252
▁Dieses	-4253
▁Gesundheits	-4254
▁guid	-4255
gü	-4256
▁water	-4257
▁Anstren	-4258
▁danger	-4259
▁hoch	-4260
▁liegen	-4261
uly	-4262
▁ermöglichen	-4263
▁verd	-4264
▁training	-4265
▁balance	-4266
▁internationale	-4267
ither	-4268
würd	-4269
▁lediglich	-4270
▁along	-4271
▁reduce	-4272
▁vergangenen	-4273
üd	-4274
formations	-4275
leben	-4276
▁langu	-4277
li	-4278
▁Stabilität	-4279
▁cut	-4280
▁Raum	-4281
▁Ide	-4282
▁enable	-4283
trägen	-4284
ec	-4285
uellen	-4286
▁obwohl	-4287
teile	-4288
sterdam	-4289
▁2002	-4290
▁sorgen	-4291
▁broad	-4292
▁When	-4293
fg	-4294
▁analys	-4295
▁leider	-4296
sprozess	-4297
▁differen	-4298
▁highl	-4299
▁required	-4300
sicherheit	-4301
▁Char	-4302
alten	-4303
▁presented	-4304
▁requirements	-4305
▁Koordin	-4306
kennen	-4307
▁dep	-4308
▁Amsterdam	-4309
▁Ukraine	-4310
▁Doch	-4311
▁hear	-4312
▁Party	-4313
▁opportunities	-4314
▁vorgelegt	-4315
ublik	-4316
more	-4317
▁everything	-4318
läss	-4319
▁Lebensmittel	-4320
▁Änderung	-4321
▁rule	-4322
▁attemp	-4323
▁21	-4324
▁spee	-4325
legung	-4326
▁Erstens	-4327
bericht	-4328
▁closed	-4329
▁berücksichtigt	-4330
▁close	-4331
▁Fischerei	-4332
▁persön	-4333
asch	-4334
äuf	-4335
▁einheit	-4336
▁instruments	-4337
▁determ	-4338
▁Prinzip	-4339
▁hard	-4340
fghan	-4341
▁thus	-4342
lemented	-4343
▁budgetary	-4344
▁Sec	-4345
▁Plan	-4346
▁Gründen	-4347
ires	-4348
▁value	-4349
icien	-4350
▁unterb	-4351
▁fast	-4352
▁Schwier	-4353
aging	-4354
▁War	-4355
▁eigentlich	-4356
ender	-4357
▁mass	-4358
▁suggest	-4359
ürger	-4360
erve	-4361
▁verab	-4362
▁Landes	-4363
▁bleibt	-4364
▁immedi	-4365
▁undert	-4366
ahn	-4367
▁throughout	-4368
▁relig	-4369
▁erhö	-4370
▁Sicht	-4371
▁Damit	-4372
▁che	-4373
ured	-4374
mitted	-4375
▁priorities	-4376
lückw	-4377
▁Zus	-4378
▁equal	-4379
ffnung	-4380
▁Arbeitsplätze	-4381
▁join	-4382
engen	-4383
▁sour	-4384
▁leben	-4385
▁Investitionen	-4386
▁bezüglich	-4387
iet	-4388
▁nature	-4389
ienste	-4390
▁Erfahr	-4391
▁danke	-4392
▁Beteil	-4393
▁stage	-4394
▁erster	-4395
griffen	-4396
zulegen	-4397
▁vertreten	-4398
▁Minder	-4399
▁Erw	-4400
▁Leit	-4401
▁clar	-4402
pf	-4403
▁either	-4404
▁2001	-4405
▁fell	-4406
ulgar	-4407
bildung	-4408
▁Vertreter	-4409
▁Zum	-4410
weil	-4411
▁verg	-4412
▁called	-4413
▁effekt	-4414
▁discrimin	-4415
▁doubt	-4416
▁Sache	-4417
▁hinweisen	-4418
por	-4419
▁Strateg	-4420
▁around	-4421
cep	-4422
gewiesen	-4423
▁Aspekte	-4424
▁wichtiger	-4425
▁Män	-4426
▁begrüßen	-4427
▁ME	-4428
▁unabhäng	-4429
▁helfen	-4430
▁beha	-4431
▁prepared	-4432
▁Gerichts	-4433
tell	-4434
▁genommen	-4435
▁bestimmte	-4436
▁tragen	-4437
▁Schengen	-4438
▁vollständ	-4439
▁initiatives	-4440
▁weiteren	-4441
ighbour	-4442
strumente	-4443
▁beh	-4444
ifel	-4445
▁satisf	-4446
▁return	-4447
isieren	-4448
▁face	-4449
go	-4450
forms	-4451
▁Uhr	-4452
▁einges	-4453
agra	-4454
▁Anstrengungen	-4455
▁durchge	-4456
troffen	-4457
ester	-4458
▁Annahme	-4459
▁Volk	-4460
▁General	-4461
tent	-4462
▁prepar	-4463
PE	-4464
▁zweite	-4465
▁dringend	-4466
▁bl	-4467
▁purs	-4468
chs	-4469
bel	-4470
▁decided	-4471
durch	-4472
▁community	-4473
lare	-4474
stra	-4475
▁Natur	-4476
▁Verfassung	-4477
ieht	-4478
▁crimin	-4479
▁constru	-4480
▁zeigt	-4481
▁hätten	-4482
uft	-4483
immung	-4484
▁Agenda	-4485
ffentlichkeit	-4486
will	-4487
gebracht	-4488
ilities	-4489
▁angesprochen	-4490
▁avoid	-4491
▁appear	-4492
▁export	-4493
▁external	-4494
ption	-4495
▁getroffen	-4496
▁trotz	-4497
ession	-4498
sk	-4499
▁Informations	-4500
arbeitung	-4501
▁improvement	-4502
lling	-4503
enntnis	-4504
▁tradition	-4505
ünst	-4506
▁pressure	-4507
▁task	-4508
▁powers	-4509
schreit	-4510
▁Lin	-4511
▁Verpflichtungen	-4512
PL	-4513
ftrag	-4514
pected	-4515
ästin	-4516
▁reached	-4517
ands	-4518
agraph	-4519
▁Druck	-4520
▁across	-4521
hnen	-4522
▁five	-4523
igte	-4524
▁conflict	-4525
co	-4526
▁La	-4527
achten	-4528
IT	-4529
▁Bemerk	-4530
▁Grenzen	-4531
velopment	-4532
▁Fehl	-4533
▁regret	-4534
▁Darüber	-4535
laub	-4536
ücht	-4537
▁beginn	-4538
▁Fahr	-4539
▁Zw	-4540
▁inst	-4541
▁using	-4542
▁fisheries	-4543
itiv	-4544
▁Pak	-4545
▁mut	-4546
▁emer	-4547
wertung	-4548
▁Barro	-4549
▁assoc	-4550
ziehung	-4551
▁talking	-4552
▁Hinsicht	-4553
pid	-4554
ES	-4555
eg	-4556
▁threat	-4557
▁Pat	-4558
▁ban	-4559
▁waste	-4560
▁fr	-4561
▁geschaffen	-4562
▁total	-4563
▁demonstr	-4564
bs	-4565
ugend	-4566
▁Prä	-4567
fence	-4568
▁official	-4569
wendet	-4570
vo	-4571
▁Deut	-4572
sehen	-4573
▁vital	-4574
▁monitoring	-4575
▁expressed	-4576
ipl	-4577
ding	-4578
▁erneut	-4579
▁Frank	-4580
▁affect	-4581
▁Tr	-4582
▁mess	-4583
▁möchten	-4584
▁raised	-4585
▁Abschließend	-4586
▁Änderungen	-4587
▁führt	-4588
mü	-4589
▁cross	-4590
losigkeit	-4591
▁sufficient	-4592
▁Wel	-4593
▁happ	-4594
ania	-4595
▁Mitteilung	-4596
▁Bas	-4597
▁levels	-4598
theless	-4599
wogen	-4600
drücklich	-4601
gebung	-4602
▁funktion	-4603
▁eindeutig	-4604
▁Nr	-4605
▁mer	-4606
▁legitim	-4607
▁Global	-4608
▁genu	-4609
▁Regeln	-4610
▁2020	-4611
hän	-4612
▁27	-4613
Europ	-4614
▁flexib	-4615
▁länd	-4616
▁implemented	-4617
▁conclusion	-4618
▁head	-4619
▁Schwierigkeiten	-4620
iting	-4621
▁erinnern	-4622
ärkung	-4623
▁critic	-4624
▁remind	-4625
▁Technolog	-4626
zeichne	-4627
geleg	-4628
▁reading	-4629
pekt	-4630
▁Acht	-4631
▁More	-4632
zif	-4633
oden	-4634
▁medium	-4635
bedingungen	-4636
▁stimme	-4637
▁rene	-4638
▁Palest	-4639
▁berücksichtigen	-4640
▁exam	-4641
▁gemäß	-4642
▁wa	-4643
elines	-4644
▁wegen	-4645
.)	-4646
▁challenges	-4647
▁eingehen	-4648
▁Ad	-4649
▁rad	-4650
▁Swed	-4651
ärkt	-4652
▁whose	-4653
▁modern	-4654
▁justice	-4655
▁capital	-4656
▁death	-4657
▁Antrag	-4658
▁versuchen	-4659
▁Nord	-4660
ändert	-4661
▁grat	-4662
▁Woche	-4663
olution	-4664
▁included	-4665
▁Jun	-4666
üng	-4667
▁direction	-4668
▁Ire	-4669
▁interess	-4670
▁demokratischen	-4671
▁Opfer	-4672
erran	-4673
▁sex	-4674
▁try	-4675
▁Sum	-4676
▁brit	-4677
▁restrict	-4678
▁40	-4679
▁beschlossen	-4680
hem	-4681
▁Abgeordnete	-4682
denken	-4683
iterran	-4684
▁France	-4685
▁experience	-4686
▁Portugal	-4687
▁scient	-4688
▁NA	-4689
▁May	-4690
▁schließlich	-4691
▁fellow	-4692
▁Innov	-4693
▁Afghan	-4694
▁Further	-4695
▁consult	-4696
raten	-4697
ets	-4698
▁quickly	-4699
gerungen	-4700
▁Ireland	-4701
▁according	-4702
▁Lassen	-4703
▁victims	-4704
▁established	-4705
▁lear	-4706
▁Ress	-4707
▁einzu	-4708
▁konzentr	-4709
hrte	-4710
▁Les	-4711
▁fal	-4712
▁ehr	-4713
▁darstellt	-4714
▁allein	-4715
▁Dez	-4716
▁Plen	-4717
▁Bulgar	-4718
geschlossen	-4719
ffizien	-4720
AP	-4721
▁Mitgliedstaat	-4722
▁recently	-4723
▁capac	-4724
▁ergreifen	-4725
▁behandelt	-4726
▁Balk	-4727
▁crime	-4728
▁Grundsatz	-4729
▁absolutely	-4730
▁attack	-4731
4-0	-4732
EC	-4733
▁constit	-4734
▁bank	-4735
▁zeigen	-4736
zeugt	-4737
▁bel	-4738
rachte	-4739
anced	-4740
▁ever	-4741
erungen	-4742
▁aufgenommen	-4743
isiert	-4744
▁borders	-4745
just	-4746
▁partnership	-4747
ract	-4748
▁billion	-4749
ilar	-4750
▁Gar	-4751
ister	-4752
auen	-4753
erweise	-4754
onnen	-4755
erkennung	-4756
▁run	-4757
▁Konferenz	-4758
ibe	-4759
▁thanks	-4760
▁sectors	-4761
▁Beg	-4762
▁note	-4763
▁relevant	-4764
▁coming	-4765
▁agriculture	-4766
▁Nie	-4767
▁light	-4768
zusetzen	-4769
▁verhindern	-4770
▁effects	-4771
▁verbunden	-4772
▁Development	-4773
▁top	-4774
▁Ratsvorsitz	-4775
sätze	-4776
▁immigration	-4777
lass	-4778
uren	-4779
▁reality	-4780
▁transparent	-4781
▁Dokument	-4782
lain	-4783
rench	-4784
▁Nachbar	-4785
▁reduction	-4786
▁folgt	-4787
▁überw	-4788
▁zuständ	-4789
▁supported	-4790
▁Belar	-4791
RO	-4792
zeigt	-4793
▁Untersuch	-4794
▁disas	-4795
▁Einz	-4796
iplom	-4797
lückwün	-4798
▁reforms	-4799
▁hold	-4800
zusch	-4801
▁Conference	-4802
gesamt	-4803
▁Bef	-4804
▁dest	-4805
orgung	-4806
▁completely	-4807
open	-4808
führen	-4809
▁woll	-4810
▁Hö	-4811
▁Sinne	-4812
itiveness	-4813
iciency	-4814
▁bilateral	-4815
▁enterpr	-4816
▁stärker	-4817
▁betonen	-4818
sibilities	-4819
▁jüng	-4820
▁Sa	-4821
▁gerecht	-4822
▁Regierungs	-4823
olid	-4824
sektor	-4825
▁benöt	-4826
▁Zivil	-4827
fahrens	-4828
▁candid	-4829
▁brought	-4830
▁bear	-4831
▁fehl	-4832
▁Verteid	-4833
▁Zunächst	-4834
▁package	-4835
iterranean	-4836
▁Anerkennung	-4837
▁krit	-4838
▁Tra	-4839
▁vergessen	-4840
▁outside	-4841
▁irgend	-4842
▁left	-4843
derungen	-4844
▁scheint	-4845
inden	-4846
ests	-4847
ffizienz	-4848
utzt	-4849
▁Kriterien	-4850
isc	-4851
▁list	-4852
▁Beitritts	-4853
▁giving	-4854
▁becom	-4855
▁keiner	-4856
ums	-4857
äter	-4858
uten	-4859
▁Belarus	-4860
▁Stud	-4861
▁Den	-4862
▁Vertrauen	-4863
▁Stellungnahme	-4864
▁öffentliche	-4865
▁camp	-4866
äus	-4867
ush	-4868
▁höch	-4869
meer	-4870
▁endlich	-4871
▁Miss	-4872
▁Iraq	-4873
äss	-4874
▁structural	-4875
▁except	-4876
wanderung	-4877
▁finally	-4878
▁Parteien	-4879
▁French	-4880
▁schle	-4881
▁Beitritt	-4882
rief	-4883
▁big	-4884
▁Auss	-4885
▁presidency	-4886
▁diejenigen	-4887
▁Kern	-4888
▁Gemeinsamen	-4889
▁live	-4890
▁Agre	-4891
▁gleichen	-4892
▁unemployment	-4893
▁extent	-4894
▁spielen	-4895
yr	-4896
▁gab	-4897
▁approved	-4898
riend	-4899
udge	-4900
▁Agreement	-4901
▁Kom	-4902
▁vol	-4903
▁bestät	-4904
▁kleinen	-4905
▁entwickeln	-4906
werk	-4907
▁prü	-4908
▁neighbour	-4909
▁Monaten	-4910
usion	-4911
▁received	-4912
▁businesses	-4913
▁dom	-4914
▁Republic	-4915
pril	-4916
je	-4917
▁price	-4918
▁unbed	-4919
▁Human	-4920
▁II	-4921
rechend	-4922
▁cause	-4923
▁bessere	-4924
▁Wahlen	-4925
ucht	-4926
▁applied	-4927
▁fl	-4928
gän	-4929
▁br	-4930
▁weder	-4931
▁dadurch	-4932
▁possibility	-4933
▁zumindest	-4934
isely	-4935
▁gesamte	-4936
▁wichtigsten	-4937
▁took	-4938
▁Verkehrs	-4939
istische	-4940
▁representatives	-4941
▁April	-4942
▁amount	-4943
▁Frankreich	-4944
▁Gu	-4945
iversity	-4946
ulf	-4947
▁sup	-4948
tragen	-4949
▁almost	-4950
▁Firstly	-4951
ief	-4952
acy	-4953
▁Imp	-4954
▁encourage	-4955
ging	-4956
▁British	-4957
industrie	-4958
▁ine	-4959
▁Haltung	-4960
hoben	-4961
▁1998	-4962
▁else	-4963
▁dise	-4964
▁unan	-4965
▁motion	-4966
▁CO	-4967
oy	-4968
▁Nations	-4969
▁six	-4970
▁heard	-4971
▁circum	-4972
▁Lesung	-4973
▁correct	-4974
▁additional	-4975
▁Africa	-4976
arily	-4977
xis	-4978
▁Projekt	-4979
▁model	-4980
▁coordination	-4981
▁ord	-4982
▁ständ	-4983
▁ign	-4984
▁guten	-4985
▁natural	-4986
▁behind	-4987
ta	-4988
rahmen	-4989
▁efficient	-4990
gelt	-4991
▁ziehen	-4992
▁summit	-4993
▁Austr	-4994
▁December	-4995
▁discussed	-4996
▁anderer	-4997
▁prices	-4998
setzungen	-4999
▁überhaupt	-5000
system	-5001
▁Schiff	-5002
▁einschließlich	-5003
▁beschäft	-5004
aden	-5005
▁Forderung	-5006
▁ensuring	-5007
rieben	-5008
▁design	-5009
▁Vereinbarung	-5010
▁accep	-5011
▁Ass	-5012
▁away	-5013
jahr	-5014
▁Einigung	-5015
dere	-5016
▁gefordert	-5017
▁competitiveness	-5018
ylum	-5019
▁bekommen	-5020
▁freue	-5021
accept	-5022
▁emissions	-5023
▁lot	-5024
▁Furthermore	-5025
▁Republik	-5026
▁Dezember	-5027
endit	-5028
▁normal	-5029
▁takes	-5030
▁kulture	-5031
▁anzu	-5032
▁Prioritäten	-5033
▁living	-5034
▁,	-5035
▁creating	-5036
▁assessment	-5037
▁tack	-5038
▁sicherzustellen	-5039
mat	-5040
▁practical	-5041
▁substant	-5042
▁sus	-5043
hagen	-5044
▁East	-5045
ibility	-5046
igran	-5047
▁unaccept	-5048
wes	-5049
rehens	-5050
handel	-5051
▁ce	-5052
▁wiederhol	-5053
▁leaders	-5054
▁gesprochen	-5055
fu	-5056
▁discussions	-5057
haus	-5058
▁treatment	-5059
▁evalu	-5060
▁Stelle	-5061
ikanischen	-5062
▁100	-5063
▁pen	-5064
▁Kommun	-5065
▁offens	-5066
troll	-5067
▁events	-5068
▁Einsatz	-5069
▁beant	-5070
▁gewor	-5071
▁Landwir	-5072
▁Überwach	-5073
▁guidelines	-5074
lam	-5075
▁Währung	-5076
stre	-5077
▁finanziellen	-5078
▁Polic	-5079
▁treffen	-5080
CO	-5081
▁bestimmten	-5082
▁begin	-5083
▁parliamentary	-5084
▁abst	-5085
bank	-5086
▁derart	-5087
▁Wahr	-5088
trächt	-5089
▁Can	-5090
▁erwähnt	-5091
▁Serb	-5092
scht	-5093
▁Belg	-5094
frastruct	-5095
▁umgesetzt	-5096
▁Kommissions	-5097
▁fig	-5098
Be	-5099
arch	-5100
▁erzielt	-5101
▁hinter	-5102
▁Anfrage	-5103
▁une	-5104
gesellschaft	-5105
▁Führ	-5106
▁Barroso	-5107
▁enthält	-5108
▁condu	-5109
konferenz	-5110
▁capacity	-5111
quate	-5112
▁Ged	-5113
▁remains	-5114
ffected	-5115
▁confidence	-5116
▁delay	-5117
ietet	-5118
▁old	-5119
▁rail	-5120
▁proceed	-5121
▁Last	-5122
▁provision	-5123
▁gere	-5124
▁paragraph	-5125
▁administrative	-5126
▁Reformen	-5127
▁unterstütze	-5128
ierenden	-5129
▁Vereinten	-5130
zeugen	-5131
▁reject	-5132
▁stop	-5133
aktor	-5134
▁Aktiv	-5135
urden	-5136
▁Of	-5137
▁Agent	-5138
▁central	-5139
▁Roma	-5140
▁Natürlich	-5141
▁industrial	-5142
▁mis	-5143
▁Regional	-5144
▁Wohl	-5145
glied	-5146
▁adoption	-5147
▁Staat	-5148
freiheit	-5149
▁außerdem	-5150
▁unacceptable	-5151
▁einzige	-5152
▁akzeptieren	-5153
▁infrastruct	-5154
eschrän	-5155
▁goods	-5156
änden	-5157
▁Wissen	-5158
▁Initiativen	-5159
räfte	-5160
▁bitten	-5161
▁konkrete	-5162
▁festgelegt	-5163
▁vere	-5164
▁Ihrer	-5165
ifically	-5166
ume	-5167
▁days	-5168
schlossen	-5169
▁Produkt	-5170
▁knowledge	-5171
gehend	-5172
▁weak	-5173
itation	-5174
change	-5175
▁bemü	-5176
vere	-5177
▁verur	-5178
▁humanitarian	-5179
▁Hung	-5180
▁erwarten	-5181
▁considered	-5182
▁scope	-5183
▁langfrist	-5184
▁Ze	-5185
▁affected	-5186
▁ermög	-5187
▁Ressourcen	-5188
ighted	-5189
enzüber	-5190
▁gewesen	-5191
schließen	-5192
izient	-5193
uted	-5194
▁huge	-5195
▁König	-5196
ba	-5197
▁formul	-5198
▁Spiel	-5199
▁Jugend	-5200
▁rate	-5201
indet	-5202
▁recon	-5203
▁National	-5204
anze	-5205
▁sitting	-5206
ij	-5207
▁schützen	-5208
▁zunehmen	-5209
rogen	-5210
zös	-5211
▁asylum	-5212
▁author	-5213
▁prim	-5214
▁Seiten	-5215
▁World	-5216
▁NATO	-5217
▁solutions	-5218
▁Familien	-5219
krise	-5220
▁Unsere	-5221
▁Partnerschaft	-5222
▁neuer	-5223
▁prot	-5224
▁Transport	-5225
öst	-5226
▁plann	-5227
▁konnte	-5228
uelle	-5229
▁Völker	-5230
▁family	-5231
▁PPE	-5232
▁electr	-5233
▁Central	-5234
zuführen	-5235
▁despite	-5236
MU	-5237
▁überzeugt	-5238
auern	-5239
▁condem	-5240
▁Einzel	-5241
▁ermöglicht	-5242
▁negative	-5243
▁Macht	-5244
▁Democrats	-5245
▁Wert	-5246
▁Aller	-5247
▁ill	-5248
▁extra	-5249
▁Economic	-5250
▁Fällen	-5251
▁Meiner	-5252
roat	-5253
▁Richtlinien	-5254
▁versucht	-5255
▁wesentlich	-5256
▁carry	-5257
▁aimed	-5258
▁discrimination	-5259
▁lok	-5260
iste	-5261
▁Asyl	-5262
▁supply	-5263
▁Zustimmung	-5264
▁criminal	-5265
▁Verwendung	-5266
▁san	-5267
▁trying	-5268
▁zweiten	-5269
▁Priv	-5270
▁difficulties	-5271
ously	-5272
▁precisely	-5273
▁flo	-5274
▁obtain	-5275
ausschusses	-5276
ma	-5277
▁untern	-5278
▁effectively	-5279
▁Mor	-5280
▁contr	-5281
▁institutional	-5282
alien	-5283
olitischen	-5284
PT	-5285
xem	-5286
odell	-5287
uption	-5288
▁häuf	-5289
schätz	-5290
lauf	-5291
wirken	-5292
▁developed	-5293
bung	-5294
▁Mil	-5295
▁Now	-5296
▁Zuständ	-5297
▁geleistet	-5298
ought	-5299
▁Flücht	-5300
▁frei	-5301
ization	-5302
▁confirm	-5303
cel	-5304
üssel	-5305
▁Regelung	-5306
▁Krieg	-5307
▁prüfen	-5308
▁genannten	-5309
▁Achtung	-5310
▁entschieden	-5311
▁detail	-5312
frastruktur	-5313
▁sy	-5314
gn	-5315
▁Werte	-5316
uern	-5317
ügen	-5318
▁contribute	-5319
▁jedem	-5320
▁Deutsch	-5321
▁Berichte	-5322
▁beglückwün	-5323
assungs	-5324
▁refuge	-5325
▁efficiency	-5326
▁instead	-5327
▁occas	-5328
▁oil	-5329
ulierung	-5330
ugs	-5331
▁connection	-5332
▁June	-5333
ästinens	-5334
▁geworden	-5335
▁Dabei	-5336
bourg	-5337
▁Vielen	-5338
openhagen	-5339
▁honourable	-5340
nungs	-5341
udgets	-5342
▁accordance	-5343
▁Afghanistan	-5344
wise	-5345
▁shown	-5346
ureau	-5347
ourn	-5348
▁targe	-5349
▁Kohäs	-5350
cco	-5351
here	-5352
▁side	-5353
▁poll	-5354
▁reference	-5355
▁territor	-5356
▁sta	-5357
▁Diskrimin	-5358
▁half	-5359
▁sieht	-5360
▁regime	-5361
zub	-5362
▁1997	-5363
▁produc	-5364
▁Kenntnis	-5365
▁Policy	-5366
▁combat	-5367
▁Drit	-5368
esterday	-5369
schw	-5370
sper	-5371
▁sinn	-5372
▁Preis	-5373
fälle	-5374
▁safegu	-5375
cke	-5376
▁jedes	-5377
▁unbedingt	-5378
▁insgesamt	-5379
fordern	-5380
▁circumstances	-5381
▁Schließlich	-5382
gült	-5383
falt	-5384
▁hoffen	-5385
astung	-5386
igungen	-5387
unch	-5388
wenden	-5389
▁Durchführung	-5390
▁Absatz	-5391
reiten	-5392
▁defence	-5393
▁Allerdings	-5394
▁met	-5395
achtet	-5396
▁warum	-5397
▁Milliar	-5398
▁zentral	-5399
▁function	-5400
▁personal	-5401
▁advant	-5402
▁Palestin	-5403
▁verstehen	-5404
▁alloc	-5405
▁Justice	-5406
▁self	-5407
▁bar	-5408
▁hingewiesen	-5409
▁Germany	-5410
ämt	-5411
▁bewusst	-5412
▁separ	-5413
▁Wochen	-5414
▁firm	-5415
▁impos	-5416
▁wr	-5417
bezogen	-5418
▁Regulation	-5419
▁message	-5420
änderungen	-5421
▁Bot	-5422
▁improving	-5423
▁People	-5424
▁zuf	-5425
▁perspect	-5426
▁technology	-5427
iko	-5428
▁Stärkung	-5429
▁mand	-5430
▁wissenschaft	-5431
▁forces	-5432
ustaus	-5433
▁created	-5434
▁active	-5435
vorschlag	-5436
zeichnung	-5437
▁Bereiche	-5438
▁gratul	-5439
▁content	-5440
-00	-5441
▁status	-5442
▁allowed	-5443
▁conclusions	-5444
▁speech	-5445
▁recognis	-5446
orre	-5447
okraten	-5448
▁bestehenden	-5449
▁verk	-5450
▁Aufgaben	-5451
▁Anfang	-5452
▁art	-5453
▁investig	-5454
hren	-5455
▁diskutieren	-5456
▁enterprises	-5457
▁Chance	-5458
▁comments	-5459
▁heutigen	-5460
▁committed	-5461
▁bi	-5462
▁fran	-5463
▁red	-5464
▁culture	-5465
▁Klimawand	-5466
ina	-5467
▁wrong	-5468
▁challenge	-5469
▁goes	-5470
▁Konflikt	-5471
▁respond	-5472
▁beginning	-5473
hm	-5474
▁sicherlich	-5475
▁minimum	-5476
▁erfüllen	-5477
▁Netz	-5478
▁providing	-5479
▁richtige	-5480
ortion	-5481
pflich	-5482
▁benefits	-5483
abel	-5484
▁allgemeinen	-5485
▁sk	-5486
▁Instrumente	-5487
▁nationale	-5488
▁innovation	-5489
lier	-5490
▁provides	-5491
hnung	-5492
▁grenzüber	-5493
▁consideration	-5494
▁enorm	-5495
▁em	-5496
▁klare	-5497
▁duty	-5498
▁date	-5499
▁Beihilfen	-5500
ols	-5501
▁reag	-5502
▁durchgeführt	-5503
▁tar	-5504
aly	-5505
▁propose	-5506
▁anerk	-5507
▁participation	-5508
▁El	-5509
▁Linie	-5510
▁independent	-5511
▁rightly	-5512
▁calls	-5513
▁accepted	-5514
▁measure	-5515
▁somit	-5516
▁rural	-5517
▁Nutzung	-5518
ussels	-5519
government	-5520
▁Königreich	-5521
yond	-5522
▁Tier	-5523
grenz	-5524
▁uner	-5525
▁verpflich	-5526
▁Ere	-5527
▁Gesprä	-5528
▁größere	-5529
▁deep	-5530
▁considerable	-5531
▁renew	-5532
▁spezie	-5533
▁successful	-5534
anischen	-5535
llos	-5536
▁Lösungen	-5537
▁simpl	-5538
▁Prü	-5539
▁Aspekt	-5540
dom	-5541
▁Katastrop	-5542
▁Ereign	-5543
ernen	-5544
▁erklärt	-5545
▁implementing	-5546
ynam	-5547
▁purpose	-5548
▁Cons	-5549
▁wan	-5550
lägen	-5551
▁Organisationen	-5552
verkehrs	-5553
▁zehn	-5554
mission	-5555
▁Grie	-5556
▁Fun	-5557
▁Vergangen	-5558
▁Betr	-5559
▁Fraktionen	-5560
▁Justiz	-5561
▁forms	-5562
▁Brussels	-5563
▁stated	-5564
▁referred	-5565
▁mitt	-5566
▁konnten	-5567
gef	-5568
▁Grundrechte	-5569
to	-5570
wesen	-5571
letzt	-5572
bringen	-5573
ichtlich	-5574
▁home	-5575
▁Ausgaben	-5576
▁lives	-5577
▁material	-5578
▁Sorge	-5579
▁beru	-5580
▁views	-5581
19	-5582
bor	-5583
▁dealing	-5584
bru	-5585
▁Waffen	-5586
▁Juni	-5587
▁effizient	-5588
▁feststellen	-5589
endence	-5590
ustom	-5591
▁specifically	-5592
▁Verwaltung	-5593
▁ECU	-5594
▁Pflicht	-5595
emb	-5596
▁Einfl	-5597
▁unfortunately	-5598
▁seriously	-5599
zieht	-5600
▁receive	-5601
ounts	-5602
▁dank	-5603
▁promoting	-5604
▁auszu	-5605
met	-5606
▁spir	-5607
ency	-5608
mand	-5609
▁Lat	-5610
anzen	-5611
▁colleague	-5612
gelegten	-5613
atch	-5614
▁spezif	-5615
▁scientific	-5616
dle	-5617
▁Praxis	-5618
liz	-5619
▁Brüssel	-5620
ützt	-5621
▁overall	-5622
▁Febru	-5623
▁ändern	-5624
▁similar	-5625
▁Anges	-5626
ump	-5627
amm	-5628
▁closely	-5629
▁französ	-5630
▁ten	-5631
▁remember	-5632
▁ausgezeichne	-5633
handen	-5634
▁exerc	-5635
▁plans	-5636
▁Absicht	-5637
▁limit	-5638
▁sämt	-5639
▁Bild	-5640
▁lösen	-5641
schiede	-5642
unsch	-5643
▁diplom	-5644
▁Griechen	-5645
▁Versuch	-5646
chnungs	-5647
▁finanzielle	-5648
icherung	-5649
▁influen	-5650
▁mensch	-5651
umän	-5652
▁Nun	-5653
▁erzielen	-5654
▁jen	-5655
eres	-5656
reib	-5657
▁competen	-5658
▁beyond	-5659
▁entsprechenden	-5660
▁seek	-5661
ots	-5662
governmental	-5663
▁Kr	-5664
▁Geschichte	-5665
▁vorliegenden	-5666
itude	-5667
utter	-5668
▁urgent	-5669
▁Vergangenheit	-5670
gere	-5671
▁vernünft	-5672
▁Inde	-5673
▁gemeinschaft	-5674
▁decide	-5675
▁argument	-5676
▁Fonds	-5677
▁ä	-5678
▁deta	-5679
▁steps	-5680
▁exchange	-5681
▁ethn	-5682
schuld	-5683
▁stärken	-5684
▁ty	-5685
▁fear	-5686
▁MEP	-5687
▁notwendigen	-5688
▁jede	-5689
▁Zweifel	-5690
▁Bü	-5691
▁tim	-5692
▁gehören	-5693
▁introduction	-5694
▁Zentral	-5695
▁wanted	-5696
European	-5697
▁Mediterranean	-5698
▁liebe	-5699
ression	-5700
ana	-5701
▁Beruf	-5702
ifizierung	-5703
otes	-5704
▁staat	-5705
▁gegenwärtig	-5706
▁friend	-5707
buch	-5708
cement	-5709
itious	-5710
In	-5711
▁Mob	-5712
▁condemn	-5713
▁veh	-5714
▁declar	-5715
▁ihres	-5716
▁alternative	-5717
▁tour	-5718
▁Gipfel	-5719
▁bietet	-5720
▁directly	-5721
sprün	-5722
▁Erklärungen	-5723
unternehmen	-5724
▁verpflichtet	-5725
▁worth	-5726
▁ways	-5727
zeugung	-5728
▁Ky	-5729
rägt	-5730
▁Medien	-5731
▁Beschäftigungs	-5732
▁expendit	-5733
esehen	-5734
▁befinden	-5735
uff	-5736
▁log	-5737
▁relationship	-5738
gesetz	-5739
▁Liberalisierung	-5740
▁vorgeschlagenen	-5741
▁Gef	-5742
▁strategic	-5743
itors	-5744
▁commer	-5745
hörde	-5746
jected	-5747
▁Georg	-5748
▁Abschluss	-5749
▁media	-5750
▁gezeigt	-5751
▁handeln	-5752
action	-5753
ören	-5754
reifen	-5755
unt	-5756
künft	-5757
isms	-5758
▁Produkte	-5759
▁requires	-5760
▁commitments	-5761
▁Übergang	-5762
▁financing	-5763
▁Today	-5764
▁border	-5765
▁observ	-5766
ological	-5767
▁Mark	-5768
▁beein	-5769
▁anti	-5770
icles	-5771
uz	-5772
▁thous	-5773
odies	-5774
',	-5775
▁garant	-5776
▁Entwurf	-5777
.00	-5778
aign	-5779
▁dev	-5780
anden	-5781
▁Green	-5782
▁consist	-5783
▁Luxem	-5784
jähr	-5785
▁passen	-5786
▁bieten	-5787
▁history	-5788
kung	-5789
entwick	-5790
▁Beschluss	-5791
▁Christ	-5792
▁produce	-5793
reichend	-5794
▁Koordinierung	-5795
▁comprehens	-5796
iedr	-5797
▁Irak	-5798
▁Einhaltung	-5799
▁ade	-5800
▁leave	-5801
▁expenditure	-5802
▁Verwaltungs	-5803
▁Constitution	-5804
▁Nahr	-5805
ury	-5806
▁verm	-5807
etimes	-5808
▁equality	-5809
▁Heute	-5810
▁counter	-5811
▁exclus	-5812
▁January	-5813
▁intended	-5814
▁eher	-5815
ande	-5816
head	-5817
▁demands	-5818
ktr	-5819
sized	-5820
barkeit	-5821
▁vorsch	-5822
▁Hinter	-5823
▁zukünft	-5824
▁gering	-5825
▁fulf	-5826
▁Behandlung	-5827
▁Greece	-5828
▁Gebieten	-5829
▁militär	-5830
sterreich	-5831
ählt	-5832
▁darstellen	-5833
▁brief	-5834
▁bald	-5835
▁Drogen	-5836
▁Beginn	-5837
▁Folge	-5838
▁activity	-5839
▁23	-5840
▁myself	-5841
▁campaign	-5842
▁Straf	-5843
▁Prodi	-5844
ächt	-5845
▁exact	-5846
▁eingere	-5847
▁Anp	-5848
iddle	-5849
▁max	-5850
▁Deutschland	-5851
▁Nieder	-5852
▁setting	-5853
▁gesehen	-5854
▁party	-5855
▁Betrie	-5856
▁ausgewogen	-5857
ismen	-5858
▁Vorbereit	-5859
▁eingesetzt	-5860
▁Priorität	-5861
▁Summit	-5862
richtungen	-5863
▁ganze	-5864
▁Partei	-5865
nungen	-5866
üt	-5867
▁besten	-5868
ffentlich	-5869
▁supporting	-5870
▁198	-5871
▁paid	-5872
▁Irish	-5873
▁block	-5874
▁übernehmen	-5875
anner	-5876
▁port	-5877
▁ursprün	-5878
▁age	-5879
best	-5880
▁Projekte	-5881
ielt	-5882
uded	-5883
▁jeweil	-5884
rec	-5885
▁vorher	-5886
haben	-5887
▁Aktivitäten	-5888
lüsse	-5889
iveau	-5890
▁rapid	-5891
▁contract	-5892
▁entsprechend	-5893
▁distrib	-5894
endum	-5895
▁sechs	-5896
▁geschehen	-5897
▁größten	-5898
▁betrachte	-5899
ancen	-5900
langt	-5901
▁1996	-5902
▁alone	-5903
▁Europeans	-5904
▁kommenden	-5905
hlen	-5906
▁Gesetzgebung	-5907
▁Spe	-5908
▁dagegen	-5909
▁Ort	-5910
üg	-5911
wahl	-5912
▁competitive	-5913
▁animal	-5914
▁Ph	-5915
▁gas	-5916
amer	-5917
▁Wasser	-5918
▁useful	-5919
▁Verpflichtung	-5920
▁reflect	-5921
▁remark	-5922
▁Irland	-5923
▁burden	-5924
▁positiv	-5925
▁bodies	-5926
▁gegenseit	-5927
▁extens	-5928
▁Tätigkeit	-5929
▁Environment	-5930
▁einzus	-5931
▁Milliarden	-5932
▁speaking	-5933
▁Regelungen	-5934
where	-5935
▁anything	-5936
▁entgegen	-5937
▁explo	-5938
The	-5939
▁schwierig	-5940
▁zufrieden	-5941
▁verfügen	-5942
▁substantial	-5943
▁Krank	-5944
▁Stimme	-5945
/0	-5946
osla	-5947
igher	-5948
▁properly	-5949
▁abzu	-5950
reff	-5951
geber	-5952
▁Europäer	-5953
▁Rechnungs	-5954
▁yesterday	-5955
ones	-5956
▁wid	-5957
ugosla	-5958
▁60	-5959
union	-5960
▁stra	-5961
orgt	-5962
▁gerne	-5963
▁häufig	-5964
▁stets	-5965
▁später	-5966
eks	-5967
▁Haushaltsplan	-5968
▁gain	-5969
▁Minutes	-5970
▁durchaus	-5971
▁concept	-5972
ars	-5973
▁24	-5974
▁Rules	-5975
▁aufmerksam	-5976
▁Strukturfonds	-5977
val	-5978
▁neu	-5979
aktion	-5980
▁disapp	-5981
▁nimmt	-5982
▁Einrichtung	-5983
▁send	-5984
▁known	-5985
prüfung	-5986
▁Von	-5987
▁opposition	-5988
▁Verteidigung	-5989
▁glauben	-5990
▁Kollege	-5991
▁shows	-5992
richtlinie	-5993
▁Dennoch	-5994
▁Schritte	-5995
apt	-5996
arta	-5997
▁Januar	-5998
▁Dan	-5999
▁listen	-6000
amber	-6001
▁früher	-6002
▁beschrän	-6003
▁Bereit	-6004
▁weeks	-6005
▁kle	-6006
front	-6007
▁discussing	-6008
▁Zeitraum	-6009
▁Mand	-6010
▁Although	-6011
▁conclude	-6012
▁Minderheiten	-6013
▁caused	-6014
oto	-6015
dienst	-6016
▁prob	-6017
▁highly	-6018
▁profess	-6019
▁konzentrieren	-6020
uerung	-6021
▁limited	-6022
Ver	-6023
ässt	-6024
▁sort	-6025
▁higher	-6026
▁bekämp	-6027
ired	-6028
▁calling	-6029
▁Diskriminierung	-6030
räft	-6031
ierter	-6032
▁Harmon	-6033
▁authority	-6034
▁establishing	-6035
▁fragen	-6036
▁developments	-6037
zwe	-6038
▁genug	-6039
äher	-6040
▁Worte	-6041
▁gives	-6042
▁type	-6043
▁police	-6044
▁besondere	-6045
▁ambitious	-6046
▁letzte	-6047
▁trag	-6048
▁Trans	-6049
llschaften	-6050
▁unternehmen	-6051
▁genuine	-6052
▁gekommen	-6053
folgerungen	-6054
pret	-6055
▁verme	-6056
▁Überwachung	-6057
▁unternommen	-6058
▁whom	-6059
uth	-6060
▁Aufnahme	-6061
▁Forschungs	-6062
▁study	-6063
äne	-6064
▁stattfinden	-6065
▁former	-6066
▁minister	-6067
▁South	-6068
▁represents	-6069
▁comment	-6070
lau	-6071
zeß	-6072
▁Unfortunately	-6073
ällt	-6074
▁Such	-6075
▁ignor	-6076
ierende	-6077
▁Sport	-6078
▁Beteiligung	-6079
▁improved	-6080
▁mittel	-6081
Mit	-6082
▁Dazu	-6083
▁Fortschritt	-6084
▁early	-6085
unkten	-6086
ME	-6087
▁Security	-6088
▁risks	-6089
▁unanim	-6090
▁complex	-6091
▁wären	-6092
ategor	-6093
▁gegenwärtigen	-6094
▁increasingly	-6095
making	-6096
▁Falle	-6097
▁Nahrungs	-6098
▁producers	-6099
laufen	-6100
▁Verhält	-6101
ensus	-6102
▁verbessert	-6103
▁Forderungen	-6104
▁Mittelmeer	-6105
▁Arbeitsmarkt	-6106
▁Meth	-6107
ournal	-6108
▁amt	-6109
▁Engagement	-6110
▁forget	-6111
▁Innovation	-6112
▁sent	-6113
▁gefunden	-6114
▁happened	-6115
afft	-6116
▁animals	-6117
▁associ	-6118
▁beginnen	-6119
▁vorhanden	-6120
▁produced	-6121
spekt	-6122
▁urge	-6123
▁Währungs	-6124
▁Einwanderung	-6125
▁Since	-6126
▁schem	-6127
▁depend	-6128
icking	-6129
gemeine	-6130
▁Straß	-6131
▁obviously	-6132
chnung	-6133
▁descr	-6134
▁achieving	-6135
▁March	-6136
30	-6137
▁word	-6138
▁erfolgreich	-6139
▁learn	-6140
▁pursu	-6141
▁UK	-6142
urd	-6143
▁bringt	-6144
▁strengthening	-6145
trie	-6146
▁Ro	-6147
idents	-6148
▁standard	-6149
▁22	-6150
▁code	-6151
▁verurs	-6152
zeichnen	-6153
▁candidate	-6154
▁emphasise	-6155
mark	-6156
▁Angesichts	-6157
AC	-6158
orpor	-6159
▁currency	-6160
▁arran	-6161
▁einiger	-6162
▁infrastructure	-6163
▁welcom	-6164
201	-6165
apan	-6166
▁Alli	-6167
▁check	-6168
▁endgült	-6169
▁außerhalb	-6170
▁Eind	-6171
▁reducing	-6172
▁ähn	-6173
vergen	-6174
▁Italy	-6175
▁later	-6176
leitet	-6177
▁aims	-6178
▁language	-6179
strukt	-6180
imately	-6181
heim	-6182
grundlage	-6183
▁Grenz	-6184
▁annual	-6185
cknow	-6186
▁Mai	-6187
▁Spanish	-6188
indern	-6189
▁statements	-6190
omb	-6191
oph	-6192
▁ganzen	-6193
ifall	-6194
artet	-6195
▁acknow	-6196
jekt	-6197
forderung	-6198
▁ship	-6199
▁defend	-6200
▁Gesamt	-6201
▁Kl	-6202
tes	-6203
fect	-6204
inced	-6205
▁zustimmen	-6206
▁erforderlichen	-6207
▁offensichtlich	-6208
ärkte	-6209
ash	-6210
ciliation	-6211
ona	-6212
▁manner	-6213
ifying	-6214
▁operation	-6215
border	-6216
▁verfolgen	-6217
▁Turk	-6218
▁Never	-6219
hab	-6220
▁März	-6221
▁looking	-6222
▁Fore	-6223
▁Alban	-6224
▁Budget	-6225
▁Grunde	-6226
▁safeguard	-6227
body	-6228
▁facilit	-6229
▁gesetzt	-6230
▁Unabhäng	-6231
ocol	-6232
▁prison	-6233
▁thought	-6234
gencies	-6235
annte	-6236
▁Leitlinien	-6237
▁says	-6238
igrants	-6239
▁Moreover	-6240
▁compens	-6241
▁Slo	-6242
called	-6243
▁convinced	-6244
▁erschein	-6245
AT	-6246
▁staff	-6247
▁Empfehlungen	-6248
▁Foreign	-6249
▁bill	-6250
▁Ost	-6251
▁damage	-6252
▁erfüllt	-6253
▁name	-6254
▁Third	-6255
▁überein	-6256
▁Verhalten	-6257
▁unf	-6258
▁outcome	-6259
▁Maße	-6260
▁wants	-6261
▁Industr	-6262
▁earlier	-6263
▁Globalisierung	-6264
▁Leider	-6265
used	-6266
▁stock	-6267
▁Tour	-6268
▁union	-6269
▁Italien	-6270
▁herr	-6271
▁hervorragen	-6272
▁Bl	-6273
laus	-6274
▁conference	-6275
▁rise	-6276
▁sometimes	-6277
▁Gleichzeitig	-6278
▁Einw	-6279
▁elements	-6280
▁leicht	-6281
mäßig	-6282
▁gran	-6283
ai	-6284
orgnis	-6285
▁firstly	-6286
▁übrigen	-6287
1)	-6288
lines	-6289
▁monetary	-6290
feld	-6291
▁diesbe	-6292
▁mus	-6293
▁verfolgt	-6294
▁Bewertung	-6295
ustausch	-6296
andidaten	-6297
▁aufzu	-6298
▁Schwer	-6299
▁multilateral	-6300
▁commercial	-6301
▁bad	-6302
▁Todes	-6303
▁vermeiden	-6304
fallen	-6305
mö	-6306
▁disch	-6307
▁recognise	-6308
fiz	-6309
▁Mechan	-6310
▁Dimension	-6311
▁80	-6312
▁suc	-6313
iter	-6314
rem	-6315
▁Bew	-6316
▁zul	-6317
▁Meinungs	-6318
▁prevention	-6319
wortet	-6320
▁acceptable	-6321
of	-6322
▁parts	-6323
▁analysis	-6324
undert	-6325
▁freien	-6326
▁Agrarpolitik	-6327
rated	-6328
▁contrary	-6329
▁verschiedene	-6330
itial	-6331
▁0	-6332
▁spirit	-6333
▁absolut	-6334
▁apprec	-6335
▁direkt	-6336
▁lik	-6337
▁Pet	-6338
handels	-6339
▁entirely	-6340
NL	-6341
▁repla	-6342
▁zahlreiche	-6343
▁documents	-6344
▁dead	-6345
▁betroffenen	-6346
adt	-6347
▁recognition	-6348
▁balanced	-6349
▁succeed	-6350
▁Infrastruktur	-6351
lause	-6352
▁niedr	-6353
▁Flexib	-6354
50	-6355
▁influence	-6356
▁anderem	-6357
▁launch	-6358
länd	-6359
▁ergriffen	-6360
▁Go	-6361
statt	-6362
▁Landwirte	-6363
▁Vis	-6364
▁thinking	-6365
ikation	-6366
▁unmittel	-6367
▁einver	-6368
▁reduced	-6369
▁element	-6370
▁willing	-6371
▁Umst	-6372
▁Trotz	-6373
aufen	-6374
▁erweit	-6375
▁hohen	-6376
▁building	-6377
▁introduced	-6378
▁introduce	-6379
▁Spain	-6380
vi	-6381
ürf	-6382
▁beige	-6383
halte	-6384
ählen	-6385
▁combating	-6386
▁Privat	-6387
▁lässt	-6388
▁Worten	-6389
▁American	-6390
rokrat	-6391
▁fraud	-6392
rab	-6393
▁Nevertheless	-6394
▁befassen	-6395
▁Ministers	-6396
▁Some	-6397
▁konstrukt	-6398
▁constant	-6399
▁gern	-6400
gewicht	-6401
▁Sprache	-6402
▁concrete	-6403
▁Garant	-6404
▁rapporteurs	-6405
enze	-6406
otion	-6407
▁pointed	-6408
▁comprehensive	-6409
▁Gene	-6410
▁laws	-6411
▁cooper	-6412
struktur	-6413
▁facing	-6414
▁Mitteln	-6415
▁consensus	-6416
achsen	-6417
▁nah	-6418
▁Klar	-6419
▁gek	-6420
ifellos	-6421
▁entscheid	-6422
▁becoming	-6423
▁Chancen	-6424
▁After	-6425
dra	-6426
ton	-6427
atlant	-6428
▁Verbindung	-6429
▁hinzu	-6430
scheinlich	-6431
▁gewährleistet	-6432
entscheid	-6433
▁möglicherweise	-6434
que	-6435
▁custom	-6436
▁anders	-6437
▁delegation	-6438
istence	-6439
▁liberalisation	-6440
ari	-6441
▁wesentlichen	-6442
amb	-6443
▁entsprechende	-6444
▁Bos	-6445
▁Japan	-6446
▁sage	-6447
▁asking	-6448
ktors	-6449
prüft	-6450
▁politischer	-6451
estic	-6452
▁unz	-6453
▁sources	-6454
▁Grundsätze	-6455
auftrag	-6456
▁Unser	-6457
▁Rel	-6458
▁Konvent	-6459
▁einsetzen	-6460
ilden	-6461
▁nationaler	-6462
zust	-6463
▁angeht	-6464
pendence	-6465
limm	-6466
▁speed	-6467
▁Hil	-6468
▁acqu	-6469
▁demokratische	-6470
▁arm	-6471
▁King	-6472
▁fo	-6473
bürger	-6474
▁erneuer	-6475
räsent	-6476
▁added	-6477
▁Höhe	-6478
▁transition	-6479
▁networks	-6480
kolog	-6481
▁trust	-6482
▁differences	-6483
▁Delegation	-6484
ience	-6485
▁dangerous	-6486
▁hour	-6487
istics	-6488
acter	-6489
▁ult	-6490
möglichkeit	-6491
▁recommendations	-6492
▁Wunsch	-6493
▁voraus	-6494
konom	-6495
▁betont	-6496
▁gleiche	-6497
▁probably	-6498
▁bein	-6499
▁festgestellt	-6500
lägt	-6501
sprogram	-6502
ört	-6503
amentar	-6504
▁Sign	-6505
hafte	-6506
uest	-6507
▁erk	-6508
▁initial	-6509
▁methods	-6510
▁derzeitigen	-6511
ekten	-6512
▁establishment	-6513
samm	-6514
gerung	-6515
▁America	-6516
▁entspricht	-6517
onom	-6518
▁außerord	-6519
▁practices	-6520
▁raise	-6521
▁Indeed	-6522
▁Mc	-6523
▁Gest	-6524
▁nachhaltige	-6525
▁Rumän	-6526
▁1,	-6527
▁Süd	-6528
iell	-6529
achtung	-6530
▁enfor	-6531
▁quot	-6532
▁diskutiert	-6533
iction	-6534
▁incorpor	-6535
▁sound	-6536
▁intervention	-6537
▁Straßen	-6538
▁flexibility	-6539
▁verste	-6540
▁eigene	-6541
▁Proced	-6542
▁record	-6543
▁Mindest	-6544
gemäß	-6545
▁optim	-6546
▁perspective	-6547
iten	-6548
ufact	-6549
▁perman	-6550
▁undertak	-6551
▁jene	-6552
▁morning	-6553
▁territorial	-6554
▁Problemen	-6555
▁Griechenland	-6556
▁closer	-6557
▁Leist	-6558
▁sport	-6559
kosten	-6560
▁fulfil	-6561
▁Rev	-6562
spe	-6563
▁strict	-6564
▁company	-6565
▁body	-6566
▁refugees	-6567
▁applies	-6568
▁strongly	-6569
ties	-6570
ished	-6571
▁exper	-6572
▁weap	-6573
▁entwickelt	-6574
▁ländlichen	-6575
bahn	-6576
▁stabil	-6577
gruppen	-6578
▁unterst	-6579
geiz	-6580
stat	-6581
höhung	-6582
▁Drittländern	-6583
▁organisation	-6584
▁wünschen	-6585
▁sanctions	-6586
▁superv	-6587
▁exactly	-6588
▁BSE	-6589
▁Kritik	-6590
▁Fehler	-6591
▁highlight	-6592
▁directives	-6593
äum	-6594
mden	-6595
gesundheit	-6596
▁jähr	-6597
▁announ	-6598
▁Lib	-6599
▁fordere	-6600
▁Nur	-6601
▁Gegenteil	-6602
lang	-6603
inter	-6604
räge	-6605
hebung	-6606
uk	-6607
▁sicherstellen	-6608
▁Bedenken	-6609
2)	-6610
oses	-6611
▁tät	-6612
▁Sanktionen	-6613
▁Erfahrungen	-6614
organisationen	-6615
▁Harmonisierung	-6616
ärkten	-6617
▁Kontin	-6618
▁hop	-6619
▁Gewähr	-6620
ald	-6621
▁beglückwünschen	-6622
hören	-6623
▁Bur	-6624
▁Versch	-6625
entlichen	-6626
▁ausreichend	-6627
▁loss	-6628
zehn	-6629
▁Entl	-6630
▁drawn	-6631
▁MEPs	-6632
▁nochmals	-6633
▁discharge	-6634
▁ideas	-6635
▁Vielfalt	-6636
uropa	-6637
gruppe	-6638
▁Wiederauf	-6639
▁Maßnahme	-6640
▁laid	-6641
▁attempt	-6642
▁Produktion	-6643
iffer	-6644
▁Verständ	-6645
▁coll	-6646
▁Angriff	-6647
ypr	-6648
▁Tun	-6649
▁gratulieren	-6650
son	-6651
▁Osten	-6652
▁autom	-6653
▁erhöhen	-6654
stoff	-6655
tritt	-6656
▁Kont	-6657
▁reply	-6658
▁chance	-6659
ances	-6660
▁Zur	-6661
estens	-6662
▁kontroll	-6663
ärm	-6664
setzt	-6665
▁submitted	-6666
▁Nah	-6667
möglich	-6668
ventions	-6669
▁finde	-6670
▁Stellen	-6671
▁Procedure	-6672
▁verantwortlich	-6673
▁sl	-6674
asse	-6675
▁regionalen	-6676
▁Acc	-6677
▁Willen	-6678
▁SME	-6679
▁mehrere	-6680
▁dienen	-6681
▁Palestinian	-6682
▁temp	-6683
▁dealt	-6684
▁gewiss	-6685
▁kleine	-6686
▁dimension	-6687
▁transfer	-6688
elten	-6689
brauch	-6690
▁failure	-6691
▁Befug	-6692
▁einverstanden	-6693
▁Botschaft	-6694
versorgung	-6695
▁möglichst	-6696
▁mechanism	-6697
▁definition	-6698
sman	-6699
▁opening	-6700
ungsverfahren	-6701
opol	-6702
▁penalt	-6703
▁Empfehlung	-6704
▁situ	-6705
itime	-6706
▁wollte	-6707
▁fallen	-6708
führungen	-6709
▁enormous	-6710
▁agencies	-6711
▁abgele	-6712
▁withdra	-6713
ilst	-6714
▁manufact	-6715
vis	-6716
▁Ausbildung	-6717
▁Romania	-6718
▁Blick	-6719
▁van	-6720
▁Gebiete	-6721
EL	-6722
▁Sim	-6723
▁univers	-6724
▁aktiv	-6725
▁Sc	-6726
▁character	-6727
▁New	-6728
ensions	-6729
▁Alle	-6730
▁parliaments	-6731
▁Überprüfung	-6732
▁Faktor	-6733
▁Italian	-6734
▁Gründe	-6735
▁erklären	-6736
▁typ	-6737
▁gestern	-6738
▁braucht	-6739
▁ones	-6740
▁governance	-6741
urance	-6742
▁Hauses	-6743
▁Why	-6744
▁informed	-6745
▁Vermitt	-6746
▁konkreten	-6747
/98	-6748
▁herz	-6749
▁conduct	-6750
▁constructive	-6751
▁moral	-6752
ex	-6753
▁integrated	-6754
▁Kyoto	-6755
▁Paper	-6756
▁et	-6757
▁critical	-6758
mm	-6759
len	-6760
▁beide	-6761
▁Trade	-6762
▁Ladies	-6763
▁wonder	-6764
▁addressed	-6765
▁Herausforderung	-6766
AF	-6767
▁Charter	-6768
▁Ins	-6769
▁Agentur	-6770
▁Konzept	-6771
osen	-6772
▁Bedürf	-6773
uls	-6774
▁verwendet	-6775
▁amer	-6776
▁dynam	-6777
▁scho	-6778
▁reserv	-6779
programm	-6780
▁targets	-6781
▁nennen	-6782
▁höher	-6783
▁near	-6784
▁fordert	-6785
▁Kohäsion	-6786
werte	-6787
▁beteiligt	-6788
losen	-6789
▁putting	-6790
▁jüngsten	-6791
▁appeal	-6792
▁immediately	-6793
▁obligations	-6794
▁Plenum	-6795
▁hervorheben	-6796
kontro	-6797
▁grant	-6798
▁Abstimm	-6799
▁1995	-6800
▁betrachtet	-6801
▁Begriff	-6802
▁hervorge	-6803
▁Sinn	-6804
zö	-6805
▁lay	-6806
▁Rechnung	-6807
▁Veränderungen	-6808
itable	-6809
▁Aktionen	-6810
▁By	-6811
▁andererseits	-6812
IS	-6813
▁verring	-6814
▁eingeführt	-6815
atik	-6816
▁happy	-6817
▁Wege	-6818
▁Aud	-6819
werten	-6820
▁Schwe	-6821
▁tw	-6822
▁ausdrücklich	-6823
▁medic	-6824
▁simple	-6825
▁verehrte	-6826
coming	-6827
▁Europol	-6828
▁growing	-6829
▁500	-6830
▁Subsid	-6831
▁Pap	-6832
▁slow	-6833
▁unable	-6834
▁contains	-6835
ival	-6836
▁expens	-6837
▁Bestand	-6838
▁chem	-6839
▁Verletz	-6840
zone	-6841
▁empf	-6842
lechter	-6843
▁bureau	-6844
▁Mo	-6845
leisch	-6846
▁übrig	-6847
▁excess	-6848
▁übern	-6849
anten	-6850
ünde	-6851
▁Health	-6852
▁mandate	-6853
rying	-6854
▁Liste	-6855
Os	-6856
▁Middle	-6857
▁organised	-6858
▁Kingdom	-6859
▁Prime	-6860
reffend	-6861
▁sensitive	-6862
▁professional	-6863
▁demonst	-6864
▁managed	-6865
mann	-6866
▁Idee	-6867
handlungen	-6868
▁respekt	-6869
either	-6870
ichern	-6871
▁prospect	-6872
▁mutual	-6873
ausschuß	-6874
▁resolutions	-6875
▁Vorschlägen	-6876
▁Erd	-6877
▁Eigen	-6878
▁künftig	-6879
▁Funktion	-6880
▁consultation	-6881
celona	-6882
▁erkennen	-6883
▁ahead	-6884
▁politisch	-6885
▁ökolog	-6886
▁choice	-6887
▁Zuständigkeit	-6888
▁Erhöhung	-6889
▁elimin	-6890
▁Bosn	-6891
▁Unabhängigkeit	-6892
▁Kapital	-6893
▁Pakistan	-6894
sichtigung	-6895
▁Übereinkommen	-6896
▁uni	-6897
▁mainly	-6898
▁merely	-6899
atur	-6900
▁Sach	-6901
▁comply	-6902
▁Festlegung	-6903
▁britischen	-6904
sparte	-6905
▁umwelt	-6906
▁globalen	-6907
va	-6908
angs	-6909
▁Analy	-6910
▁contact	-6911
iarity	-6912
▁Vorschlags	-6913
▁Agency	-6914
Mitglied	-6915
▁positiven	-6916
▁positions	-6917
▁mechanisms	-6918
▁auff	-6919
stoffe	-6920
▁Zweck	-6921
▁inn	-6922
▁mist	-6923
▁Inhalt	-6924
▁intention	-6925
▁erör	-6926
IP	-6927
▁persons	-6928
▁lar	-6929
▁sagt	-6930
▁adapt	-6931
fält	-6932
▁enj	-6933
akte	-6934
▁Ist	-6935
EG	-6936
▁zudem	-6937
▁debates	-6938
▁Barcelona	-6939
▁Oct	-6940
▁heart	-6941
▁ausges	-6942
▁gesetz	-6943
▁Strategy	-6944
▁rejected	-6945
▁administration	-6946
arl	-6947
des	-6948
▁kürz	-6949
▁Sonder	-6950
▁sea	-6951
schau	-6952
▁test	-6953
▁Entwicklungen	-6954
▁Even	-6955
▁Chamber	-6956
▁KMU	-6957
▁Akte	-6958
▁persönlich	-6959
▁Redner	-6960
inding	-6961
▁signed	-6962
itel	-6963
▁Jetzt	-6964
licherweise	-6965
▁Einfluss	-6966
▁Turkish	-6967
▁Klimawandel	-6968
vereign	-6969
▁verteid	-6970
-,	-6971
▁zusätzliche	-6972
sprü	-6973
▁thousands	-6974
▁Berück	-6975
▁behaup	-6976
▁disaster	-6977
▁geschieht	-6978
▁sal	-6979
▁Warum	-6980
▁travel	-6981
itzen	-6982
▁Basis	-6983
suchen	-6984
unsten	-6985
▁leading	-6986
oke	-6987
▁Drittens	-6988
uropäischen	-6989
lexible	-6990
▁erfolgen	-6991
▁erleicht	-6992
▁Nutzen	-6993
klang	-6994
▁31	-6995
▁Eindruck	-6996
▁understanding	-6997
▁Anforderungen	-6998
entwurf	-6999
▁technischen	-7000
beziehung	-7001
▁EG	-7002
▁Amendments	-7003
▁Okt	-7004
ördert	-7005
▁fu	-7006
▁Spanien	-7007
iode	-7008
▁Defin	-7009
▁seitens	-7010
▁easy	-7011
▁Ferner	-7012
▁elected	-7013
aßt	-7014
▁gebe	-7015
▁Altern	-7016
▁Risiko	-7017
▁October	-7018
▁continuing	-7019
▁Prote	-7020
▁sovereign	-7021
▁lost	-7022
▁Gü	-7023
▁exercise	-7024
▁Oktober	-7025
▁deliver	-7026
▁resolve	-7027
Str	-7028
zeuge	-7029
▁mittl	-7030
▁bureauc	-7031
pplause	-7032
▁parlamentar	-7033
▁Anliegen	-7034
▁Subsidiar	-7035
▁remov	-7036
▁26	-7037
▁Realität	-7038
▁Aktionsplan	-7039
▁Sto	-7040
▁figures	-7041
▁vollständig	-7042
▁italien	-7043
▁Friedens	-7044
erungs	-7045
▁Hoffnung	-7046
▁impossible	-7047
▁Bo	-7048
▁Finn	-7049
▁Polize	-7050
▁Russian	-7051
▁frag	-7052
▁29	-7053
▁told	-7054
öff	-7055
▁einger	-7056
▁abgelehnt	-7057
▁corr	-7058
strategie	-7059
▁evidence	-7060
▁Diskussionen	-7061
▁came	-7062
▁coher	-7063
kommt	-7064
▁bezug	-7065
richten	-7066
▁Anzahl	-7067
sprogramm	-7068
▁28	-7069
▁includes	-7070
ape	-7071
▁sinnvoll	-7072
oples	-7073
Re	-7074
▁kaum	-7075
▁künftigen	-7076
▁Eisen	-7077
respon	-7078
▁neues	-7079
▁Gemein	-7080
▁Umfang	-7081
▁Vorteile	-7082
orn	-7083
▁unc	-7084
▁unbe	-7085
▁Anteil	-7086
eden	-7087
▁Heim	-7088
▁guarantees	-7089
▁AC	-7090
▁worked	-7091
▁anderes	-7092
▁Verbrechen	-7093
▁abgeschlossen	-7094
..	-7095
ior	-7096
itory	-7097
gers	-7098
▁besseren	-7099
▁advantage	-7100
▁Fälle	-7101
▁Gerichtshof	-7102
▁independence	-7103
▁unge	-7104
leistungen	-7105
▁politic	-7106
igne	-7107
▁Many	-7108
▁genet	-7109
▁occup	-7110
▁Tagung	-7111
▁jem	-7112
▁pub	-7113
▁zweifellos	-7114
hood	-7115
▁Einige	-7116
▁wichtiges	-7117
endes	-7118
▁grundsätz	-7119
gree	-7120
iums	-7121
▁ought	-7122
▁speakers	-7123
rechten	-7124
▁concentr	-7125
uführen	-7126
▁adequate	-7127
pping	-7128
▁Fremden	-7129
▁Überzeugung	-7130
äfen	-7131
▁Hoch	-7132
▁Gal	-7133
▁subsidiarity	-7134
▁regular	-7135
▁Anspruch	-7136
ettbewerbs	-7137
▁hohe	-7138
▁formal	-7139
▁gelungen	-7140
▁sofort	-7141
▁trafficking	-7142
/97	-7143
öder	-7144
▁ged	-7145
▁sonst	-7146
erten	-7147
olitische	-7148
▁interpret	-7149
▁Ausführungen	-7150
ittees	-7151
leistung	-7152
reck	-7153
ateful	-7154
▁wishes	-7155
▁repeat	-7156
▁attitude	-7157
strö	-7158
lüssel	-7159
▁benötigen	-7160
istisch	-7161
▁Zyp	-7162
▁North	-7163
lemente	-7164
▁totally	-7165
▁Wissenschaft	-7166
▁fern	-7167
▁degree	-7168
▁warm	-7169
ürk	-7170
▁Tab	-7171
▁Afrika	-7172
▁nöt	-7173
punkte	-7174
▁votes	-7175
▁Hause	-7176
▁payments	-7177
▁Hintergrund	-7178
weist	-7179
▁solcher	-7180
▁rates	-7181
fühl	-7182
▁abg	-7183
▁volle	-7184
▁Einklang	-7185
▁desire	-7186
▁geäuß	-7187
▁situations	-7188
▁shar	-7189
▁related	-7190
▁traffic	-7191
▁ehrgeiz	-7192
▁bringing	-7193
▁Wider	-7194
▁promotion	-7195
▁Standards	-7196
199	-7197
▁peoples	-7198
▁recommendation	-7199
▁genutzt	-7200
▁Politiken	-7201
ergie	-7202
▁Arbeitsplätzen	-7203
üben	-7204
▁Eing	-7205
▁renewable	-7206
amente	-7207
möglichkeiten	-7208
▁Tagen	-7209
▁structure	-7210
schiedet	-7211
▁technologies	-7212
legungen	-7213
▁Fäh	-7214
▁surpr	-7215
▁denken	-7216
▁economies	-7217
▁Kre	-7218
▁quant	-7219
▁verabschiedet	-7220
▁Kontroll	-7221
▁Verträge	-7222
iveness	-7223
▁allgemeine	-7224
▁Gel	-7225
▁mill	-7226
▁harm	-7227
urally	-7228
▁nieder	-7229
▁treaty	-7230
▁vorlegen	-7231
▁hor	-7232
▁West	-7233
▁dennoch	-7234
ients	-7235
beauftrag	-7236
▁Gruppe	-7237
▁Kindern	-7238
▁erfre	-7239
uctural	-7240
▁schwierigen	-7241
▁Jahrh	-7242
▁Programms	-7243
▁Mio	-7244
▁territory	-7245
tedly	-7246
▁SMEs	-7247
▁mobil	-7248
▁münd	-7249
▁Accord	-7250
▁controls	-7251
schn	-7252
▁affairs	-7253
stag	-7254
ieg	-7255
▁grateful	-7256
▁expression	-7257
linge	-7258
▁Moment	-7259
▁Bemerkungen	-7260
▁membership	-7261
▁Pact	-7262
▁Glaub	-7263
▁bekämpfen	-7264
▁landwirtschaft	-7265
▁failed	-7266
▁vollkommen	-7267
▁11.	-7268
institution	-7269
▁weshalb	-7270
▁income	-7271
▁supports	-7272
▁rech	-7273
▁instance	-7274
▁größte	-7275
▁länger	-7276
program	-7277
▁actual	-7278
▁reinfor	-7279
▁2011	-7280
▁sehe	-7281
▁Freiz	-7282
▁ersch	-7283
chischen	-7284
▁gewisse	-7285
▁pill	-7286
iment	-7287
▁behandeln	-7288
▁..	-7289
▁Dann	-7290
▁families	-7291
gements	-7292
▁Subsidiarität	-7293
yprus	-7294
▁Anpassung	-7295
lauben	-7296
▁signal	-7297
▁Structural	-7298
üsse	-7299
kungen	-7300
▁weiterer	-7301
▁opposed	-7302
▁dre	-7303
uba	-7304
▁Voraussetzungen	-7305
▁anwes	-7306
▁lines	-7307
▁Gruppen	-7308
▁Zoll	-7309
istr	-7310
ees	-7311
▁Monate	-7312
▁Thirdly	-7313
schaff	-7314
▁Cyprus	-7315
hemal	-7316
▁lower	-7317
▁Weiter	-7318
▁Einbeziehung	-7319
▁involvement	-7320
sequently	-7321
mittag	-7322
▁Abkommens	-7323
▁Freiheiten	-7324
wide	-7325
▁Aufbau	-7326
▁stre	-7327
▁Obwohl	-7328
▁Monetary	-7329
▁vielmehr	-7330
▁Sen	-7331
▁türk	-7332
▁Islam	-7333
▁regel	-7334
▁linked	-7335
▁getting	-7336
ragt	-7337
▁ausführ	-7338
▁perform	-7339
ya	-7340
▁Konsens	-7341
▁Agricult	-7342
stac	-7343
▁Funds	-7344
behörden	-7345
grenzung	-7346
▁hom	-7347
▁forced	-7348
▁pension	-7349
▁Vergleich	-7350
SV	-7351
▁prior	-7352
▁geograph	-7353
spakt	-7354
▁explan	-7355
▁involving	-7356
▁Kü	-7357
▁Ann	-7358
orea	-7359
▁secure	-7360
liance	-7361
▁Jul	-7362
▁immediate	-7363
▁reagieren	-7364
▁Rechtsgrundlage	-7365
esten	-7366
▁betrachten	-7367
atisch	-7368
▁jung	-7369
▁target	-7370
▁plen	-7371
▁trägt	-7372
▁kons	-7373
▁forth	-7374
orthern	-7375
▁weapons	-7376
angt	-7377
▁office	-7378
AR	-7379
igent	-7380
▁acts	-7381
▁niemand	-7382
ungsbereich	-7383
▁entschlossen	-7384
▁beiz	-7385
ktiken	-7386
▁claim	-7387
▁Ihren	-7388
▁talks	-7389
cker	-7390
▁falls	-7391
▁obstac	-7392
▁Sh	-7393
missionen	-7394
latz	-7395
nehmern	-7396
▁rele	-7397
▁vorbereit	-7398
sec	-7399
▁aussprechen	-7400
▁goal	-7401
▁drugs	-7402
▁hören	-7403
▁reden	-7404
▁original	-7405
▁wahrscheinlich	-7406
KP	-7407
▁green	-7408
▁happening	-7409
Ber	-7410
▁err	-7411
▁Rand	-7412
▁keines	-7413
▁aufgefordert	-7414
▁factor	-7415
uses	-7416
▁Bla	-7417
▁perfect	-7418
▁tourism	-7419
▁substances	-7420
zent	-7421
▁Waren	-7422
▁ergeben	-7423
▁2.	-7424
astern	-7425
örder	-7426
▁jur	-7427
änglich	-7428
▁moder	-7429
▁appreci	-7430
▁90	-7431
▁prefer	-7432
▁umfassende	-7433
udem	-7434
▁Verfahrens	-7435
▁flexible	-7436
▁Nos	-7437
grenzen	-7438
kret	-7439
▁faced	-7440
uestion	-7441
▁Flexibilität	-7442
▁truly	-7443
▁Som	-7444
▁sides	-7445
▁publish	-7446
▁koordin	-7447
uber	-7448
▁Zudem	-7449
▁granted	-7450
▁adopting	-7451
▁Mont	-7452
künd	-7453
▁neben	-7454
▁plenary	-7455
▁Verbot	-7456
▁consolid	-7457
▁greatest	-7458
▁gefördert	-7459
▁chair	-7460
igital	-7461
▁Konsequ	-7462
▁70	-7463
▁anerkannt	-7464
läut	-7465
▁Lauf	-7466
vert	-7467
▁Ern	-7468
▁besonderen	-7469
▁mil	-7470
▁indire	-7471
▁Mitarbeit	-7472
▁usw	-7473
fahrt	-7474
▁Public	-7475
▁election	-7476
▁Zypern	-7477
▁protecting	-7478
▁recognised	-7479
▁underm	-7480
ather	-7481
embly	-7482
▁toler	-7483
▁bestätigt	-7484
▁...	-7485
▁Umweltschutz	-7486
▁internationaler	-7487
▁legen	-7488
▁ready	-7489
ederal	-7490
ada	-7491
▁Besorgnis	-7492
▁jetz	-7493
reichung	-7494
mechan	-7495
▁According	-7496
▁ehemal	-7497
▁Ja	-7498
▁bilden	-7499
▁mag	-7500
▁interesting	-7501
▁veran	-7502
▁fü	-7503
liegt	-7504
ave	-7505
▁Gas	-7506
▁zugunsten	-7507
▁Mus	-7508
▁Bemerkung	-7509
▁round	-7510
▁keinerlei	-7511
fähig	-7512
▁prä	-7513
▁seeking	-7514
the	-7515
ünden	-7516
aßen	-7517
▁Hindern	-7518
▁starting	-7519
▁grundlegenden	-7520
min	-7521
akter	-7522
▁verö	-7523
▁disease	-7524
umer	-7525
▁Lam	-7526
enswert	-7527
▁bekräft	-7528
▁followed	-7529
▁Charta	-7530
▁stimmt	-7531
▁Ang	-7532
volle	-7533
▁angeb	-7534
▁gender	-7535
▁finance	-7536
▁Effizienz	-7537
rep	-7538
▁Poland	-7539
astricht	-7540
▁umzusetzen	-7541
▁wettbewerbs	-7542
▁Vorbereitung	-7543
bild	-7544
uble	-7545
▁cal	-7546
▁covered	-7547
systeme	-7548
▁div	-7549
▁Sweden	-7550
▁Sozialdem	-7551
▁rig	-7552
▁Während	-7553
▁committees	-7554
täus	-7555
▁Balkan	-7556
▁Ereignisse	-7557
onn	-7558
qual	-7559
▁Beste	-7560
▁Krimin	-7561
ibet	-7562
▁occur	-7563
▁subsidies	-7564
benen	-7565
▁Unterschiede	-7566
▁nächste	-7567
▁meetings	-7568
▁minorities	-7569
LAF	-7570
iable	-7571
uchen	-7572
▁accomp	-7573
▁Prüfung	-7574
▁Maastricht	-7575
try	-7576
▁miteinander	-7577
▁Juli	-7578
öp	-7579
▁Urs	-7580
▁partner	-7581
ingeschrän	-7582
AS	-7583
▁Berat	-7584
▁Anre	-7585
zi	-7586
umping	-7587
▁Dienste	-7588
▁Schluß	-7589
▁July	-7590
schrän	-7591
greif	-7592
▁ey	-7593
▁Kollegin	-7594
▁sw	-7595
ringerung	-7596
▁begrenz	-7597
▁carefully	-7598
leiten	-7599
▁erwähn	-7600
▁Schlüssel	-7601
▁globalisation	-7602
schlag	-7603
▁verstärkt	-7604
hre	-7605
▁explain	-7606
heits	-7607
standing	-7608
oul	-7609
▁Rumänien	-7610
lock	-7611
▁uneingeschrän	-7612
▁dict	-7613
▁diversity	-7614
▁Beob	-7615
▁suffering	-7616
▁Besonder	-7617
▁floor	-7618
▁Handeln	-7619
bekämpfung	-7620
▁Ziffer	-7621
▁compar	-7622
▁shared	-7623
▁entstehen	-7624
▁reduz	-7625
▁erfordert	-7626
Strategie	-7627
▁beab	-7628
▁AKP	-7629
▁Verfassungs	-7630
▁annehmen	-7631
▁pollution	-7632
▁Erwä	-7633
▁Dafür	-7634
Applause	-7635
▁wesentliche	-7636
Christ	-7637
▁Verständnis	-7638
▁echte	-7639
▁Märkte	-7640
▁daraus	-7641
▁African	-7642
▁Systems	-7643
▁bedauer	-7644
▁ausger	-7645
▁anbel	-7646
▁tackle	-7647
ündet	-7648
▁proposing	-7649
kräfte	-7650
▁Swedish	-7651
▁ability	-7652
▁Berlin	-7653
▁sämtliche	-7654
▁zahlreichen	-7655
▁PSE	-7656
▁zuständigen	-7657
anging	-7658
▁geeigne	-7659
EU	-7660
▁auffor	-7661
▁Rechtsstaat	-7662
oler	-7663
▁Hohen	-7664
handelt	-7665
▁Reaktion	-7666
▁anbelangt	-7667
▁kompliz	-7668
▁Mitgliedern	-7669
▁changed	-7670
▁continues	-7671
gänz	-7672
uell	-7673
▁größeren	-7674
asten	-7675
reitet	-7676
▁thereby	-7677
▁Klein	-7678
▁Heimat	-7679
▁lies	-7680
▁Polen	-7681
▁spent	-7682
▁terrorist	-7683
ugg	-7684
▁tro	-7685
▁arr	-7686
▁Deswegen	-7687
▁detailed	-7688
orary	-7689
▁range	-7690
▁äußern	-7691
▁designed	-7692
technolog	-7693
▁akzeptiert	-7694
▁Viele	-7695
▁involve	-7696
abwe	-7697
▁Gaz	-7698
tellten	-7699
▁ung	-7700
trol	-7701
▁mobility	-7702
▁structures	-7703
sammlung	-7704
▁einerseits	-7705
▁evaluation	-7706
▁Eur	-7707
▁front	-7708
▁permanent	-7709
▁pol	-7710
▁verlei	-7711
▁Treffen	-7712
ündung	-7713
Beifall	-7714
▁vir	-7715
▁Tele	-7716
▁subst	-7717
▁communities	-7718
ara	-7719
▁jeweiligen	-7720
▁minority	-7721
▁Technologien	-7722
▁ut	-7723
▁presence	-7724
▁excl	-7725
arz	-7726
▁Ord	-7727
▁class	-7728
sequent	-7729
zwungen	-7730
▁Energy	-7731
▁courage	-7732
▁gelangen	-7733
▁benef	-7734
▁tele	-7735
▁Verringerung	-7736
▁Nahrungsmittel	-7737
▁Balkans	-7738
▁Dienstleistungs	-7739
▁Beschlüsse	-7740
▁Milit	-7741
▁Konsult	-7742
▁beträcht	-7743
▁nachhaltigen	-7744
▁naturally	-7745
▁transatlant	-7746
uter	-7747
▁criticism	-7748
▁Neu	-7749
af	-7750
▁serve	-7751
▁u	-7752
▁Erwart	-7753
▁continent	-7754
▁Krisen	-7755
▁Vorgehen	-7756
izin	-7757
führten	-7758
▁taxation	-7759
▁board	-7760
vertrag	-7761
▁condition	-7762
▁arms	-7763
▁react	-7764
▁konkret	-7765
▁Voraussetzung	-7766
▁Gedanken	-7767
läuf	-7768
▁harmonisation	-7769
▁won	-7770
ille	-7771
▁prosper	-7772
▁See	-7773
▁Haft	-7774
▁Zahlen	-7775
▁series	-7776
▁competence	-7777
▁advoc	-7778
▁Problems	-7779
▁Eisenbahn	-7780
▁ACP	-7781
▁bezieht	-7782
▁zuletzt	-7783
olz	-7784
▁wert	-7785
▁Comp	-7786
ügigkeit	-7787
▁Wohlstand	-7788
▁einf	-7789
▁schwed	-7790
▁Entlastung	-7791
chsel	-7792
▁dauer	-7793
onic	-7794
ktron	-7795
▁ec	-7796
pped	-7797
andal	-7798
▁Phase	-7799
▁Auditors	-7800
▁ausgesprochen	-7801
brit	-7802
▁Don	-7803
Pres	-7804
▁emphasis	-7805
▁sole	-7806
▁vorange	-7807
▁Ungleich	-7808
▁While	-7809
▁leiden	-7810
▁defic	-7811
behörde	-7812
▁bedarf	-7813
angel	-7814
inational	-7815
▁path	-7816
▁Fundamental	-7817
▁innovative	-7818
▁unabhängig	-7819
▁betreffenden	-7820
▁Gleichstellung	-7821
▁größer	-7822
▁entscheidend	-7823
▁anyone	-7824
▁gelöst	-7825
▁aktuellen	-7826
▁meant	-7827
verletz	-7828
▁Kompeten	-7829
▁judicial	-7830
▁einig	-7831
▁diesel	-7832
▁Arz	-7833
▁technische	-7834
-201	-7835
▁binding	-7836
stieg	-7837
zielle	-7838
stellungen	-7839
▁vehicles	-7840
▁planning	-7841
▁consistent	-7842
hle	-7843
▁Grü	-7844
▁voice	-7845
▁vertra	-7846
▁bedeuten	-7847
wachstum	-7848
▁Budgets	-7849
▁Ander	-7850
▁causes	-7851
▁Gesetze	-7852
DA	-7853
▁fried	-7854
▁Übereinstimmung	-7855
▁offiz	-7856
▁expected	-7857
▁Jo	-7858
▁pal	-7859
▁volunt	-7860
▁Insel	-7861
▁credit	-7862
▁don	-7863
▁entit	-7864
▁Mensch	-7865
▁Sea	-7866
▁spra	-7867
FI	-7868
fare	-7869
barer	-7870
▁einheitlichen	-7871
▁näher	-7872
▁consumption	-7873
altet	-7874
▁ferner	-7875
tste	-7876
ira	-7877
▁Greek	-7878
▁ständig	-7879
▁geändert	-7880
▁Punkten	-7881
▁improvements	-7882
▁Verl	-7883
▁fle	-7884
▁reasonable	-7885
▁credibility	-7886
▁Kandidaten	-7887
roh	-7888
este	-7889
▁late	-7890
haften	-7891
▁approval	-7892
▁Definition	-7893
upts	-7894
▁repeated	-7895
imal	-7896
▁Slow	-7897
▁amongst	-7898
▁Eastern	-7899
tru	-7900
▁Normen	-7901
abelling	-7902
▁Kontrollen	-7903
overy	-7904
▁debt	-7905
▁ausschließlich	-7906
britann	-7907
▁otherwise	-7908
würdigkeit	-7909
9)	-7910
▁nachdem	-7911
▁Freizügigkeit	-7912
ature	-7913
▁Presse	-7914
▁falsch	-7915
riers	-7916
▁oral	-7917
▁Legal	-7918
▁regionale	-7919
▁Großbritann	-7920
tert	-7921
▁Van	-7922
abilität	-7923
▁withdraw	-7924
▁Status	-7925
▁enjoy	-7926
▁Internationalen	-7927
▁Volksgesundheit	-7928
öhn	-7929
▁Fischer	-7930
AL	-7931
ino	-7932
▁Po	-7933
spunkt	-7934
▁employees	-7935
▁möglichen	-7936
▁ermut	-7937
▁unfair	-7938
▁Einwander	-7939
▁vorzulegen	-7940
▁begrüßt	-7941
▁Generation	-7942
ancial	-7943
▁limits	-7944
▁betreffend	-7945
erous	-7946
))	-7947
mbud	-7948
finanz	-7949
▁Konflik	-7950
stelle	-7951
▁participate	-7952
berecht	-7953
▁Außenpolitik	-7954
▁Sk	-7955
▁Mold	-7956
prinzip	-7957
hofs	-7958
▁Cze	-7959
▁außerordentlich	-7960
▁nations	-7961
Ab	-7962
cent	-7963
▁Frü	-7964
▁destro	-7965
atters	-7966
▁pun	-7967
▁Arten	-7968
▁hours	-7969
▁rasch	-7970
tendlich	-7971
▁Opp	-7972
▁Zwischen	-7973
▁Streit	-7974
atell	-7975
▁stake	-7976
▁vorzu	-7977
▁Legisl	-7978
▁anz	-7979
▁Behin	-7980
▁treten	-7981
schätzung	-7982
▁bezahl	-7983
▁Vereinbarungen	-7984
▁aufzunehmen	-7985
▁Rule	-7986
▁glad	-7987
▁teile	-7988
▁darunter	-7989
▁multinational	-7990
▁entry	-7991
▁cle	-7992
▁Mitglieds	-7993
kre	-7994
▁arrangements	-7995
▁Ben	-7996
▁grounds	-7997
▁Herkunft	-7998
▁bestimmt	-7999
leun	-8000
▁Vorausschau	-8001
izep	-8002
▁eingereicht	-8003
▁Tabak	-8004
▁vorge	-8005
▁immigrants	-8006
nü	-8007
zed	-8008
▁exec	-8009
▁zufolge	-8010
▁kulturellen	-8011
▁hund	-8012
▁verloren	-8013
▁erfahren	-8014
▁maximum	-8015
▁grie	-8016
▁sto	-8017
▁isol	-8018
esearch	-8019
▁kämp	-8020
erkennen	-8021
strafe	-8022
▁Market	-8023
▁describ	-8024
▁Korr	-8025
▁hält	-8026
▁Meines	-8027
reitung	-8028
▁inspect	-8029
schaffung	-8030
utr	-8031
▁Jed	-8032
▁Strategien	-8033
inal	-8034
▁Western	-8035
▁Gleichgewicht	-8036
▁obligation	-8037
▁gave	-8038
▁declaration	-8039
▁Ele	-8040
▁Balt	-8041
kap	-8042
▁NG	-8043
tere	-8044
▁symb	-8045
▁2,	-8046
▁Beweis	-8047
atever	-8048
▁Politiker	-8049
▁Only	-8050
▁gestalten	-8051
▁languages	-8052
izepräsident	-8053
▁achievement	-8054
▁neither	-8055
▁Research	-8056
▁religious	-8057
▁lat	-8058
▁Mann	-8059
▁alten	-8060
atischen	-8061
▁Analyse	-8062
▁spielt	-8063
▁representative	-8064
nam	-8065
▁inten	-8066
▁citizen	-8067
loyed	-8068
▁lautet	-8069
reche	-8070
▁works	-8071
▁kennen	-8072
▁source	-8073
▁veröffent	-8074
▁Commissioners	-8075
attle	-8076
▁grundlegende	-8077
▁tut	-8078
bruch	-8079
wel	-8080
▁generally	-8081
sc	-8082
▁decis	-8083
▁Mobilität	-8084
▁Allgemein	-8085
▁Elemente	-8086
onia	-8087
ology	-8088
▁factors	-8089
▁session	-8090
▁Agriculture	-8091
▁freedoms	-8092
▁französischen	-8093
fuhr	-8094
▁attacks	-8095
▁Verst	-8096
▁goals	-8097
verän	-8098
▁Every	-8099
▁easier	-8100
▁started	-8101
▁herzlich	-8102
▁visa	-8103
▁Schweden	-8104
▁Those	-8105
▁Modell	-8106
▁Vielleicht	-8107
▁starke	-8108
▁Schaden	-8109
▁vorgeschlagene	-8110
▁Wähl	-8111
lichung	-8112
▁appears	-8113
▁complain	-8114
▁toba	-8115
▁encouraging	-8116
mar	-8117
▁Lie	-8118
▁russ	-8119
▁angemessene	-8120
▁Risiken	-8121
▁feed	-8122
ehm	-8123
▁setzt	-8124
äumt	-8125
ildet	-8126
neim	-8127
▁Binnenmarktes	-8128
▁Voll	-8129
▁tobacco	-8130
▁compensation	-8131
▁contributions	-8132
besch	-8133
▁Signal	-8134
▁Perspekt	-8135
▁domestic	-8136
spiel	-8137
▁übrigens	-8138
▁Zentralbank	-8139
attet	-8140
▁Nahen	-8141
▁nunmehr	-8142
▁verurteilt	-8143
▁vorgenommen	-8144
▁bio	-8145
▁freie	-8146
▁whilst	-8147
▁Bulgaria	-8148
▁wiederholen	-8149
▁abstimmen	-8150
▁Untersuchung	-8151
▁Also	-8152
▁politics	-8153
▁politicians	-8154
▁respected	-8155
ruit	-8156
▁tätig	-8157
▁speaker	-8158
▁erle	-8159
▁komme	-8160
▁vorrang	-8161
▁Sektoren	-8162
▁welfare	-8163
ienten	-8164
sucht	-8165
▁Relig	-8166
lose	-8167
allel	-8168
isted	-8169
ermaßen	-8170
instrument	-8171
▁Vizepräsident	-8172
▁Imm	-8173
▁thre	-8174
steller	-8175
schefs	-8176
▁facilitate	-8177
▁eingehalten	-8178
▁From	-8179
▁Serv	-8180
▁zeit	-8181
▁Czech	-8182
▁anwesend	-8183
orse	-8184
▁voranz	-8185
▁heav	-8186
▁sensible	-8187
ox	-8188
sy	-8189
▁moving	-8190
fällen	-8191
▁separate	-8192
▁notwendige	-8193
▁Glaubwürdigkeit	-8194
ued	-8195
▁Socialist	-8196
▁richtigen	-8197
DP	-8198
▁Malt	-8199
▁funktioniert	-8200
▁Vice	-8201
▁spok	-8202
▁beziehen	-8203
▁genannt	-8204
▁delighted	-8205
▁achten	-8206
▁dign	-8207
▁wichtigste	-8208
spartei	-8209
die	-8210
▁regulatory	-8211
ruh	-8212
atal	-8213
▁UNO	-8214
neimittel	-8215
▁recovery	-8216
▁Umständen	-8217
▁Vereinfach	-8218
▁Est	-8219
verage	-8220
▁hil	-8221
▁maritime	-8222
▁submit	-8223
▁seines	-8224
▁lokalen	-8225
".	-8226
▁Wür	-8227
ungsbe	-8228
inner	-8229
▁warten	-8230
abor	-8231
▁abziel	-8232
10	-8233
▁imposed	-8234
▁nachdrücklich	-8235
▁Dut	-8236
enkt	-8237
zufügen	-8238
▁speziell	-8239
babwe	-8240
based	-8241
▁Befugnisse	-8242
▁unterstreichen	-8243
ables	-8244
schäd	-8245
▁sorg	-8246
systems	-8247
▁zurückge	-8248
achteil	-8249
▁Verk	-8250
Vert	-8251
istenz	-8252
▁Anmerk	-8253
▁Verbesserungen	-8254
▁Miß	-8255
▁Mut	-8256
hib	-8257
▁nahe	-8258
dent	-8259
▁Erfahrung	-8260
schafts	-8261
ulated	-8262
▁übernommen	-8263
▁restrictions	-8264
▁equally	-8265
vak	-8266
▁ordnungs	-8267
▁Bestandteil	-8268
▁negotiating	-8269
Sta	-8270
▁Wirklichkeit	-8271
▁proposes	-8272
▁gradu	-8273
etheless	-8274
tion	-8275
▁zerst	-8276
▁evening	-8277
▁constitutional	-8278
▁3.	-8279
▁fällt	-8280
actory	-8281
▁Sorgen	-8282
ulner	-8283
▁Familie	-8284
▁kl	-8285
auso	-8286
zwischen	-8287
▁richten	-8288
cision	-8289
ahren	-8290
erring	-8291
▁imper	-8292
▁belong	-8293
▁bemüht	-8294
▁crimes	-8295
▁endorse	-8296
▁Übergangs	-8297
▁Zielen	-8298
▁Überlegungen	-8299
udan	-8300
entions	-8301
▁experts	-8302
▁opinions	-8303
▁spending	-8304
▁interested	-8305
areness	-8306
▁insist	-8307
▁conflicts	-8308
▁mindestens	-8309
▁digital	-8310
▁threaten	-8311
undes	-8312
▁Abend	-8313
▁requirement	-8314
▁behin	-8315
▁capable	-8316
▁teilweise	-8317
▁Ganz	-8318
zubauen	-8319
▁placed	-8320
▁Beam	-8321
▁Element	-8322
▁Abschaffung	-8323
▁arres	-8324
▁inclusion	-8325
▁Antworten	-8326
staatlichen	-8327
▁beseit	-8328
▁construction	-8329
▁Ebenso	-8330
▁compliance	-8331
Mitgliedstaaten	-8332
...	-8333
fassung	-8334
▁verlieren	-8335
see	-8336
▁helping	-8337
▁Zeichen	-8338
▁Verhältnis	-8339
utin	-8340
▁erfolgt	-8341
▁Are	-8342
ktions	-8343
worfen	-8344
▁Ausnahme	-8345
▁likely	-8346
▁kürzlich	-8347
mbudsman	-8348
etherlands	-8349
▁forthcoming	-8350
zul	-8351
▁2013	-8352
uting	-8353
▁nütz	-8354
änderung	-8355
asbourg	-8356
▁vulner	-8357
▁ordnungsgemäß	-8358
▁labelling	-8359
erechtigkeit	-8360
▁verstärken	-8361
▁deli	-8362
▁palästinens	-8363
assend	-8364
▁illegalen	-8365
▁Netherlands	-8366
eben	-8367
▁impose	-8368
▁century	-8369
roht	-8370
▁appropriations	-8371
effizienz	-8372
ventionen	-8373
▁tasks	-8374
▁Niederlan	-8375
quality	-8376
▁großes	-8377
▁mehreren	-8378
räften	-8379
▁ausgezeichneten	-8380
Gen	-8381
▁197	-8382
▁scale	-8383
▁contrad	-8384
▁Croat	-8385
▁Petitions	-8386
▁verlangen	-8387
▁Formen	-8388
▁migration	-8389
hold	-8390
▁High	-8391
▁Sow	-8392
spart	-8393
▁suchen	-8394
irms	-8395
▁personally	-8396
▁einbezogen	-8397
▁Ausmaß	-8398
standards	-8399
▁diseases	-8400
▁geltenden	-8401
▁guaranteed	-8402
▁hervorgehoben	-8403
▁investments	-8404
▁bemühen	-8405
▁effektiv	-8406
▁numerous	-8407
▁Stability	-8408
ley	-8409
▁Tiere	-8410
▁Strasbourg	-8411
osing	-8412
▁spricht	-8413
▁fighting	-8414
iry	-8415
▁letzt	-8416
▁entscheidender	-8417
▁verf	-8418
▁Bedro	-8419
▁referendum	-8420
otenzial	-8421
▁traditional	-8422
▁Bürgerbeauftrag	-8423
▁Kar	-8424
▁Prinzipien	-8425
▁allowing	-8426
▁resolved	-8427
nüp	-8428
▁purposes	-8429
▁Copenhagen	-8430
▁Kopenhagen	-8431
▁west	-8432
▁awareness	-8433
rochen	-8434
lehnung	-8435
ulations	-8436
▁solve	-8437
▁incent	-8438
▁gezogen	-8439
erte	-8440
▁defined	-8441
▁interven	-8442
hrten	-8443
▁genü	-8444
▁übertragen	-8445
Die	-8446
▁operations	-8447
▁dahin	-8448
▁natür	-8449
▁manage	-8450
▁umfassenden	-8451
spl	-8452
▁Weiß	-8453
▁plant	-8454
▁vision	-8455
▁erscheint	-8456
▁via	-8457
▁Krankheiten	-8458
anger	-8459
▁payment	-8460
verse	-8461
weder	-8462
▁Lond	-8463
▁Stre	-8464
▁Gemeinsame	-8465
St	-8466
uese	-8467
indungen	-8468
▁Austria	-8469
orough	-8470
▁verfügt	-8471
▁35	-8472
▁Erk	-8473
sprinzip	-8474
▁wachsen	-8475
▁continued	-8476
Bericht	-8477
▁exists	-8478
▁Trag	-8479
▁erhebliche	-8480
Aus	-8481
▁Mir	-8482
estimmung	-8483
▁Vorbe	-8484
▁Übr	-8485
▁Other	-8486
äden	-8487
▁Mart	-8488
▁Produktions	-8489
gy	-8490
set	-8491
▁folgende	-8492
▁thorough	-8493
aket	-8494
▁truth	-8495
ätigkeiten	-8496
ommer	-8497
▁Baltic	-8498
ros	-8499
▁Auftrag	-8500
▁Ordnung	-8501
▁Erzeugnisse	-8502
▁stattf	-8503
▁schlecht	-8504
▁Großbritannien	-8505
▁informiert	-8506
uens	-8507
▁customs	-8508
▁existence	-8509
▁Portuguese	-8510
▁schließen	-8511
▁–,	-8512
▁Luxembourg	-8513
gesellschaften	-8514
/2000	-8515
▁London	-8516
▁voluntary	-8517
-200	-8518
▁Tibet	-8519
ilen	-8520
det	-8521
▁letter	-8522
chmal	-8523
▁Besuch	-8524
▁Framework	-8525
▁einzigen	-8526
werber	-8527
▁attach	-8528
▁siehe	-8529
▁trading	-8530
▁occasion	-8531
▁disasters	-8532
▁versichern	-8533
▁har	-8534
ias	-8535
▁Eigent	-8536
▁occasions	-8537
nahm	-8538
beziehungen	-8539
anda	-8540
▁verständ	-8541
▁weiteres	-8542
▁verbind	-8543
▁bit	-8544
rel	-8545
▁seien	-8546
▁AL	-8547
▁anstatt	-8548
entwicklung	-8549
atoren	-8550
▁Regime	-8551
▁abgestimmt	-8552
2,	-8553
▁Action	-8554
steht	-8555
General	-8556
▁Berufs	-8557
▁Vorhaben	-8558
ony	-8559
netz	-8560
▁officials	-8561
▁Verhandlungs	-8562
▁ging	-8563
selben	-8564
▁Liber	-8565
▁ausreichen	-8566
sprachen	-8567
▁mission	-8568
oub	-8569
going	-8570
▁worse	-8571
▁demonstrated	-8572
▁künftige	-8573
▁verdient	-8574
▁knows	-8575
▁distribution	-8576
gemeinschaft	-8577
▁effectiveness	-8578
ußt	-8579
eind	-8580
▁estim	-8581
▁ausgesetzt	-8582
▁profitieren	-8583
ifiziert	-8584
▁millions	-8585
▁erheblich	-8586
▁Genehm	-8587
▁ernsthaft	-8588
▁demonstrate	-8589
▁associated	-8590
▁Kriminalität	-8591
abling	-8592
ball	-8593
ältigen	-8594
▁functioning	-8595
▁Arbeitsplatz	-8596
▁begonnen	-8597
▁vieler	-8598
▁peaceful	-8599
▁protected	-8600
ichert	-8601
▁bir	-8602
▁vess	-8603
▁befindet	-8604
▁passengers	-8605
▁eröff	-8606
▁propert	-8607
▁rechtlichen	-8608
▁remarks	-8609
▁schließ	-8610
▁sele	-8611
▁Parlamente	-8612
rt	-8613
▁Personal	-8614
tein	-8615
▁Kan	-8616
▁abhäng	-8617
▁diss	-8618
schung	-8619
▁banks	-8620
▁beruf	-8621
▁operators	-8622
▁bestimmter	-8623
▁vorliegende	-8624
▁Ev	-8625
▁Ident	-8626
icity	-8627
▁Gespräche	-8628
▁Head	-8629
▁jetzigen	-8630
klärung	-8631
▁lob	-8632
▁Treat	-8633
▁durchzuführen	-8634
▁Bek	-8635
urely	-8636
▁geprüft	-8637
▁operate	-8638
▁Exper	-8639
▁humanitäre	-8640
▁complic	-8641
▁erläut	-8642
iler	-8643
▁equip	-8644
▁Another	-8645
▁überzeugen	-8646
pay	-8647
▁Erwartungen	-8648
▁Zeiten	-8649
▁Männern	-8650
▁wenigen	-8651
▁Kenn	-8652
▁sinc	-8653
orrekt	-8654
beziehen	-8655
rates	-8656
▁verwe	-8657
▁schlimm	-8658
▁written	-8659
▁Vereinfachung	-8660
▁außen	-8661
▁anschließen	-8662
▁dritten	-8663
▁sogen	-8664
hängen	-8665
▁restruct	-8666
kontrolle	-8667
▁Umweltfragen	-8668
cyc	-8669
redit	-8670
▁tried	-8671
▁entitled	-8672
endet	-8673
▁auss	-8674
▁Rechnungshof	-8675
President	-8676
▁option	-8677
ette	-8678
issens	-8679
▁strik	-8680
▁constitution	-8681
▁Bi	-8682
▁beteiligen	-8683
▁legitimate	-8684
igend	-8685
▁geäußert	-8686
ifications	-8687
▁Arzneimittel	-8688
unruh	-8689
▁Ombudsman	-8690
▁Gefahren	-8691
regel	-8692
▁hands	-8693
▁Lastly	-8694
▁contained	-8695
▁ultimately	-8696
ograf	-8697
▁entscheidende	-8698
via	-8699
▁1994	-8700
▁White	-8701
entliche	-8702
▁wide	-8703
▁examples	-8704
▁verleihen	-8705
spolitischen	-8706
▁letztendlich	-8707
▁Straßburg	-8708
▁wom	-8709
▁Welche	-8710
▁Financial	-8711
▁individuals	-8712
akzept	-8713
▁sichern	-8714
▁sexual	-8715
▁Energien	-8716
▁justified	-8717
nel	-8718
▁assure	-8719
▁concluded	-8720
▁primarily	-8721
▁praktisch	-8722
▁Regierungschefs	-8723
▁zuge	-8724
samkeit	-8725
▁Lo	-8726
▁base	-8727
▁phys	-8728
▁Einrichtungen	-8729
▁ca	-8730
▁frequ	-8731
▁Kooperation	-8732
▁flow	-8733
▁elektron	-8734
kamp	-8735
icherungs	-8736
▁Ablehnung	-8737
▁Katastrophen	-8738
▁Mitentscheid	-8739
ikations	-8740
▁Flüchtlinge	-8741
örper	-8742
▁realise	-8743
▁Az	-8744
lined	-8745
sibly	-8746
▁Männer	-8747
▁verfüg	-8748
▁amounts	-8749
▁stell	-8750
▁haupts	-8751
▁Treaties	-8752
▁spanischen	-8753
uck	-8754
ordnungen	-8755
struction	-8756
▁involves	-8757
DS	-8758
arth	-8759
▁Univers	-8760
▁retain	-8761
what	-8762
▁Chinese	-8763
▁Amts	-8764
▁Katastrophe	-8765
oted	-8766
▁voran	-8767
oking	-8768
öße	-8769
▁imag	-8770
za	-8771
ppel	-8772
icted	-8773
▁Verfasser	-8774
▁hoffentlich	-8775
quellen	-8776
▁bewegen	-8777
▁welcher	-8778
▁Konsequenzen	-8779
▁klaren	-8780
▁scheme	-8781
▁approve	-8782
odurch	-8783
▁overcome	-8784
▁ras	-8785
▁GM	-8786
▁Ham	-8787
▁auffordern	-8788
▁imports	-8789
▁verlangt	-8790
▁violations	-8791
▁Widerspruch	-8792
ücken	-8793
▁gewissen	-8794
▁Praktiken	-8795
oon	-8796
aler	-8797
▁difference	-8798
attern	-8799
▁passed	-8800
▁meaning	-8801
▁Palästinens	-8802
▁Offen	-8803
▁dankbar	-8804
▁examine	-8805
▁allocated	-8806
economic	-8807
▁Todesstrafe	-8808
▁dignity	-8809
▁freiwill	-8810
▁vorgesehenen	-8811
wirkung	-8812
▁spread	-8813
▁substance	-8814
▁Technologie	-8815
ätze	-8816
▁Syr	-8817
▁kam	-8818
▁eingeb	-8819
▁sorgfält	-8820
▁Trad	-8821
▁Despite	-8822
▁Resolution	-8823
▁Reduz	-8824
▁festzulegen	-8825
iscal	-8826
▁attend	-8827
▁wodurch	-8828
präsident	-8829
▁informieren	-8830
ends	-8831
resented	-8832
▁widersp	-8833
▁gewalt	-8834
aktionen	-8835
▁kämpfen	-8836
▁Opposition	-8837
▁Ratifizierung	-8838
▁erg	-8839
▁break	-8840
atically	-8841
▁Mittelpunkt	-8842
ischem	-8843
▁radio	-8844
▁Bildungs	-8845
▁gesellschaft	-8846
▁February	-8847
▁democrat	-8848
▁extended	-8849
qualität	-8850
lying	-8851
▁played	-8852
▁noted	-8853
atively	-8854
seh	-8855
▁Gra	-8856
anders	-8857
ausende	-8858
▁corruption	-8859
▁Bec	-8860
▁average	-8861
inary	-8862
▁Februar	-8863
▁Given	-8864
Staaten	-8865
▁enhan	-8866
▁verteidigen	-8867
▁Ru	-8868
▁suspend	-8869
▁Gesetzes	-8870
adow	-8871
ierender	-8872
▁CAP	-8873
▁EP	-8874
▁planned	-8875
▁öffentlich	-8876
▁Mich	-8877
▁Fisher	-8878
adv	-8879
dienste	-8880
▁welchen	-8881
▁proportion	-8882
gebiet	-8883
▁wit	-8884
achte	-8885
▁marg	-8886
▁Leute	-8887
▁intensiv	-8888
▁Ober	-8889
▁emergency	-8890
▁cooperate	-8891
▁Schwerpunkt	-8892
urteilung	-8893
freund	-8894
viel	-8895
▁gezwungen	-8896
gas	-8897
5-00	-8898
iling	-8899
▁lose	-8900
▁Berichten	-8901
▁got	-8902
▁revision	-8903
▁Ihrem	-8904
▁nachzu	-8905
▁Sprachen	-8906
ctor	-8907
thand	-8908
▁Marktes	-8909
stehenden	-8910
▁treated	-8911
▁nevertheless	-8912
▁NGOs	-8913
ftreten	-8914
oubtedly	-8915
▁whatever	-8916
▁folgenden	-8917
▁verstanden	-8918
▁Sü	-8919
▁gutes	-8920
▁zweitens	-8921
▁garantieren	-8922
▁Slovak	-8923
▁Zusammenhalt	-8924
▁stim	-8925
▁frage	-8926
▁firmly	-8927
afr	-8928
ente	-8929
▁spreche	-8930
▁hol	-8931
▁mur	-8932
▁Platz	-8933
▁Patienten	-8934
inger	-8935
▁farming	-8936
▁tatsäch	-8937
ointed	-8938
▁Perhaps	-8939
ähnen	-8940
▁Sudan	-8941
▁unless	-8942
▁heutige	-8943
▁India	-8944
▁Women	-8945
▁schlägt	-8946
▁wünsche	-8947
▁Gewährleistung	-8948
mon	-8949
▁visit	-8950
▁Systeme	-8951
▁vulnerable	-8952
iders	-8953
▁müß	-8954
▁Organe	-8955
▁niemals	-8956
▁Kommunikation	-8957
▁tä	-8958
▁mal	-8959
▁Defiz	-8960
▁reiter	-8961
▁Assembly	-8962
meth	-8963
▁beschäftigen	-8964
▁Dutch	-8965
▁dramat	-8966
▁Alger	-8967
▁Anfragen	-8968
▁somewhat	-8969
▁requested	-8970
▁Boden	-8971
▁überall	-8972
▁Beschluß	-8973
osal	-8974
▁Cha	-8975
▁Stock	-8976
▁massive	-8977
▁assist	-8978
▁virt	-8979
▁adjust	-8980
▁sozialer	-8981
politischen	-8982
vollen	-8983
▁bedau	-8984
nach	-8985
▁Städ	-8986
▁taxes	-8987
▁statistics	-8988
▁Dialogs	-8989
▁secret	-8990
stoß	-8991
▁Anhör	-8992
igerung	-8993
▁temporary	-8994
▁Parlamentar	-8995
▁decisive	-8996
▁ministers	-8997
▁happens	-8998
▁Arbeiten	-8999
▁technological	-9000
ivity	-9001
lementary	-9002
illed	-9003
▁clause	-9004
▁latter	-9005
ini	-9006
rechter	-9007
▁ethnic	-9008
▁transl	-9009
▁Gaza	-9010
▁Here	-9011
▁Niveau	-9012
▁wenige	-9013
NG	-9014
tung	-9015
gehens	-9016
▁Unions	-9017
tschaften	-9018
▁Währungsunion	-9019
▁coup	-9020
▁überprü	-9021
▁zugleich	-9022
▁impression	-9023
▁Dub	-9024
fertigt	-9025
▁lebens	-9026
▁chemical	-9027
▁secondly	-9028
otten	-9029
institutional	-9030
olon	-9031
▁offers	-9032
▁Führung	-9033
▁obstacles	-9034
uche	-9035
▁Lab	-9036
▁umfang	-9037
▁collective	-9038
▁penalty	-9039
▁Welthand	-9040
schluss	-9041
ktivität	-9042
▁beigetragen	-9043
▁breit	-9044
verfahrens	-9045
▁implic	-9046
▁property	-9047
▁Report	-9048
▁airport	-9049
▁solches	-9050
▁derartige	-9051
▁industries	-9052
15	-9053
▁unzure	-9054
▁vergleich	-9055
▁Banken	-9056
udes	-9057
▁zut	-9058
ris	-9059
▁fuel	-9060
HO	-9061
▁Herzen	-9062
▁genauso	-9063
▁einheitliche	-9064
viour	-9065
▁Grünen	-9066
▁quotas	-9067
▁letztlich	-9068
/96	-9069
▁gehalten	-9070
▁unmittelbar	-9071
▁Post	-9072
▁allows	-9073
▁please	-9074
isierten	-9075
▁Charakter	-9076
▁Reduzierung	-9077
worte	-9078
ökonom	-9079
▁deleg	-9080
▁höchst	-9081
2-	-9082
icip	-9083
ingu	-9084
▁erleichtern	-9085
ishing	-9086
▁Respekt	-9087
▁gewährt	-9088
▁preparing	-9089
▁considering	-9090
▁zuvor	-9091
▁jungen	-9092
ferences	-9093
teen	-9094
ipfel	-9095
▁Fach	-9096
na	-9097
▁stor	-9098
▁Zusatz	-9099
▁Sad	-9100
▁Asso	-9101
▁gone	-9102
▁Malta	-9103
Vertrag	-9104
▁Ausgang	-9105
▁afford	-9106
▁verringern	-9107
bald	-9108
ugoslaw	-9109
▁fishermen	-9110
▁amerikanischen	-9111
▁appell	-9112
▁protest	-9113
ski	-9114
wiegen	-9115
▁eingegangen	-9116
▁Dring	-9117
initiative	-9118
▁Fisheries	-9119
▁excessive	-9120
▁Angaben	-9121
▁einzuführen	-9122
▁erhöht	-9123
▁Because	-9124
▁angewand	-9125
▁beschäftigt	-9126
▁hauptsächlich	-9127
urb	-9128
mlich	-9129
advant	-9130
▁Teilen	-9131
▁stehenden	-9132
▁preventing	-9133
anische	-9134
reb	-9135
itzt	-9136
▁Argument	-9137
aries	-9138
▁foot	-9139
▁jenen	-9140
▁phase	-9141
▁accounts	-9142
▁Finanzierungs	-9143
▁Debatten	-9144
▁highest	-9145
▁GAP	-9146
▁Ohne	-9147
▁drawing	-9148
▁prepare	-9149
▁operational	-9150
iding	-9151
▁Abfall	-9152
gently	-9153
▁damals	-9154
▁compared	-9155
hört	-9156
▁Doha	-9157
▁gewähl	-9158
▁erwähnen	-9159
▁exception	-9160
▁geschützt	-9161
Reg	-9162
off	-9163
wegs	-9164
▁honest	-9165
▁einstimm	-9166
▁abuse	-9167
▁ländliche	-9168
HU	-9169
▁prove	-9170
▁Gegensatz	-9171
▁disadvant	-9172
▁ursprünglichen	-9173
▁destru	-9174
▁duties	-9175
▁spoken	-9176
sein	-9177
▁details	-9178
▁Bulgarien	-9179
▁diesbezüglich	-9180
assungen	-9181
▁Journal	-9182
▁urgently	-9183
akten	-9184
▁erwartet	-9185
▁undoubtedly	-9186
lös	-9187
▁Then	-9188
▁Flugh	-9189
▁wirksame	-9190
▁Che	-9191
▁relates	-9192
/2001	-9193
wegung	-9194
ystemen	-9195
regeln	-9196
▁Any	-9197
▁lauf	-9198
▁inakzept	-9199
▁links	-9200
▁Geist	-9201
▁inade	-9202
vergence	-9203
▁applying	-9204
▁seven	-9205
▁agency	-9206
ispiele	-9207
▁echten	-9208
vorschläge	-9209
▁aband	-9210
▁space	-9211
▁constantly	-9212
▁Investitions	-9213
ranken	-9214
▁engag	-9215
▁processes	-9216
▁electronic	-9217
▁finanziert	-9218
▁proceedings	-9219
▁Darum	-9220
▁Verzö	-9221
▁centre	-9222
ps	-9223
organ	-9224
▁Prof	-9225
▁fiscal	-9226
▁elector	-9227
▁vereinbar	-9228
verhandlungen	-9229
▁tool	-9230
▁gründ	-9231
▁stocks	-9232
jährigen	-9233
▁wollten	-9234
▁pet	-9235
▁symp	-9236
angehör	-9237
mitglie	-9238
▁latest	-9239
▁vorschlagen	-9240
▁Refer	-9241
▁Croatia	-9242
▁facts	-9243
▁diver	-9244
▁Dublin	-9245
ichtlinie	-9246
▁teilnehmen	-9247
aters	-9248
▁places	-9249
inen	-9250
▁hän	-9251
▁spoke	-9252
▁Militär	-9253
NS	-9254
▁Nein	-9255
▁Soll	-9256
▁expla	-9257
▁behaviour	-9258
▁spät	-9259
▁geboten	-9260
▁register	-9261
▁appreciate	-9262
▁prosperity	-9263
▁Kroat	-9264
zusammen	-9265
▁expectations	-9266
▁codecision	-9267
iox	-9268
ufe	-9269
▁ru	-9270
▁OLAF	-9271
▁patent	-9272
ills	-9273
▁Mangel	-9274
▁Massen	-9275
▁gelegt	-9276
▁stronger	-9277
▁announced	-9278
▁Strukturen	-9279
▁vorgelegten	-9280
▁mögliche	-9281
▁Volkspartei	-9282
▁pursue	-9283
▁friends	-9284
▁Vermittlungs	-9285
kund	-9286
▁300	-9287
▁Asia	-9288
▁abstain	-9289
▁Alliance	-9290
▁konfront	-9291
▁Wall	-9292
▁coast	-9293
▁exclusion	-9294
alter	-9295
▁Israeli	-9296
▁keeping	-9297
3,	-9298
▁paar	-9299
▁Betracht	-9300
▁Exp	-9301
▁phen	-9302
▁Commun	-9303
bereiche	-9304
▁advert	-9305
lässlich	-9306
▁Beispiele	-9307
▁operating	-9308
▁abandon	-9309
▁Ban	-9310
▁court	-9311
▁minutes	-9312
▁phenomen	-9313
▁tief	-9314
▁bee	-9315
modell	-9316
▁paper	-9317
▁described	-9318
▁unzureich	-9319
ering	-9320
▁precise	-9321
▁ende	-9322
▁guter	-9323
▁witness	-9324
▁Patten	-9325
▁oblige	-9326
▁besorgt	-9327
▁taxpay	-9328
▁irre	-9329
waffen	-9330
▁determined	-9331
▁types	-9332
▁entfern	-9333
▁gewählt	-9334
▁Gesicht	-9335
▁beschleun	-9336
▁extension	-9337
▁Pa	-9338
ails	-9339
engt	-9340
bauen	-9341
▁Arab	-9342
▁Korea	-9343
▁timet	-9344
▁Dringlichkeit	-9345
wers	-9346
▁Atom	-9347
▁schafft	-9348
▁introducing	-9349
▁Arbeitnehmern	-9350
ague	-9351
▁Meeres	-9352
▁unterzeichnet	-9353
▁Ansichten	-9354
▁sod	-9355
▁uncertain	-9356
▁welch	-9357
▁intends	-9358
▁Zahlungs	-9359
▁Assozi	-9360
▁orient	-9361
▁Wahrheit	-9362
nt	-9363
▁Consumer	-9364
▁arguments	-9365
▁strategies	-9366
▁conciliation	-9367
▁allzu	-9368
▁association	-9369
▁Em	-9370
▁Polizei	-9371
bo	-9372
▁verz	-9373
▁represented	-9374
bring	-9375
▁barriers	-9376
behandlung	-9377
wirkt	-9378
▁Preise	-9379
▁studies	-9380
▁britische	-9381
▁humanitären	-9382
▁Unternehmens	-9383
xts	-9384
▁beings	-9385
▁exploitation	-9386
lausel	-9387
▁traged	-9388
▁Wirkung	-9389
▁Aug	-9390
enty	-9391
▁insurance	-9392
▁Mos	-9393
▁Rad	-9394
ulate	-9395
▁deserv	-9396
acc	-9397
▁permit	-9398
▁komplex	-9399
▁mittleren	-9400
▁Ag	-9401
▁vert	-9402
▁pillar	-9403
▁gestärkt	-9404
sph	-9405
▁trifft	-9406
▁Austausch	-9407
▁Mandat	-9408
▁clarify	-9409
▁globale	-9410
▁Hal	-9411
mutzung	-9412
ming	-9413
▁Armen	-9414
▁dritte	-9415
▁confirmed	-9416
▁einzusetzen	-9417
Das	-9418
mittelt	-9419
nor	-9420
gendes	-9421
▁horiz	-9422
▁wiederum	-9423
berichterst	-9424
▁Ungar	-9425
▁danach	-9426
▁bestätigen	-9427
▁convergence	-9428
machen	-9429
eitigung	-9430
▁emb	-9431
▁bege	-9432
▁exem	-9433
struct	-9434
▁contracts	-9435
▁prohib	-9436
▁Protection	-9437
▁Bundes	-9438
▁Secret	-9439
▁welcomed	-9440
tzeit	-9441
▁1990	-9442
▁Mitte	-9443
▁überprüfen	-9444
sätzen	-9445
▁Paket	-9446
älfte	-9447
märkte	-9448
▁5.	-9449
▁äl	-9450
▁strengthened	-9451
IF	-9452
▁GU	-9453
▁infr	-9454
▁nötig	-9455
▁israel	-9456
▁Vorgehens	-9457
lings	-9458
einanders	-9459
▁accompan	-9460
▁historic	-9461
▁Bedarf	-9462
▁Freude	-9463
▁etc	-9464
ervation	-9465
▁Beteiligten	-9466
▁August	-9467
▁verhindert	-9468
yed	-9469
▁published	-9470
hton	-9471
▁follows	-9472
▁starken	-9473
staats	-9474
▁briefly	-9475
▁abhängig	-9476
▁menschlichen	-9477
▁ratification	-9478
▁Wein	-9479
▁kept	-9480
▁disag	-9481
▁qualit	-9482
▁debating	-9483
▁politically	-9484
▁Sä	-9485
gebaut	-9486
▁Indien	-9487
▁equipment	-9488
übt	-9489
▁wiederholt	-9490
▁largely	-9491
▁acknowled	-9492
ero	-9493
▁OS	-9494
▁soeben	-9495
▁gestr	-9496
▁europäisches	-9497
ulich	-9498
▁Treib	-9499
schreitenden	-9500
▁pie	-9501
▁Vorteil	-9502
▁spezifischen	-9503
▁sad	-9504
▁teilen	-9505
▁erleben	-9506
▁solange	-9507
tering	-9508
▁fields	-9509
▁materials	-9510
▁3,	-9511
▁Kind	-9512
fun	-9513
▁fehlt	-9514
ümm	-9515
▁Rent	-9516
nehmbar	-9517
▁Anwend	-9518
igu	-9519
iegen	-9520
▁host	-9521
▁Gelder	-9522
▁derzeitige	-9523
▁Bedürfnisse	-9524
▁Gerechtigkeit	-9525
▁Milch	-9526
▁gesp	-9527
▁alarm	-9528
▁double	-9529
▁staatlichen	-9530
wahlen	-9531
▁erhält	-9532
▁realistic	-9533
▁Befür	-9534
▁Schuld	-9535
▁Serbia	-9536
▁brings	-9537
▁uniform	-9538
▁bedanken	-9539
▁gerichtet	-9540
▁aud	-9541
▁portug	-9542
levision	-9543
äßt	-9544
▁Stadt	-9545
▁Stimm	-9546
▁stärkere	-9547
▁portugies	-9548
▁Opt	-9549
avour	-9550
▁absen	-9551
▁manchmal	-9552
▁Gegenstand	-9553
▁konfrontiert	-9554
▁Internal	-9555
▁Korruption	-9556
▁intelle	-9557
year	-9558
▁maintaining	-9559
▁wirtschaftlich	-9560
mier	-9561
ström	-9562
▁correspon	-9563
▁sovereignty	-9564
▁apart	-9565
▁privaten	-9566
▁Tage	-9567
▁verlassen	-9568
▁ALDE	-9569
▁answers	-9570
▁Gre	-9571
haltet	-9572
▁Verhe	-9573
▁Millenn	-9574
▁Äuß	-9575
itely	-9576
▁sprach	-9577
▁Lob	-9578
▁Güter	-9579
▁Stoffe	-9580
▁kurzem	-9581
▁irischen	-9582
▁Wachstums	-9583
sport	-9584
▁umsetzen	-9585
▁Constitutional	-9586
▁zusätzlichen	-9587
ilot	-9588
▁electricity	-9589
IB	-9590
▁Würde	-9591
25	-9592
umb	-9593
pl	-9594
▁Steuern	-9595
▁urgency	-9596
gleichheit	-9597
verein	-9598
▁Atlant	-9599
matic	-9600
haushalt	-9601
ikanische	-9602
wirklichung	-9603
▁Studie	-9604
▁jemand	-9605
▁leadership	-9606
▁vors	-9607
stoffen	-9608
▁bislang	-9609
▁largest	-9610
▁Bö	-9611
▁Grünbuch	-9612
▁amending	-9613
▁Employment	-9614
▁froh	-9615
▁Schatten	-9616
▁verwenden	-9617
ades	-9618
▁Vier	-9619
▁brut	-9620
▁multi	-9621
yer	-9622
▁Su	-9623
auft	-9624
schul	-9625
agne	-9626
▁Terr	-9627
▁ziemlich	-9628
erzeug	-9629
▁enttäus	-9630
▁gebeten	-9631
▁sla	-9632
▁unn	-9633
▁doub	-9634
▁Erzeuger	-9635
▁zurückzu	-9636
▁deutschen	-9637
▁coordinated	-9638
ques	-9639
▁rich	-9640
▁beunruh	-9641
▁beinhaltet	-9642
▁durchführen	-9643
▁Andererseits	-9644
obil	-9645
orient	-9646
tellig	-9647
▁finding	-9648
▁undertaken	-9649
▁room	-9650
▁Solana	-9651
▁perfectly	-9652
▁junge	-9653
▁Instead	-9654
cks	-9655
uts	-9656
▁tre	-9657
utive	-9658
▁Begr	-9659
▁supervision	-9660
nex	-9661
▁ansprechen	-9662
▁religi	-9663
▁illegale	-9664
▁Kürz	-9665
▁Patent	-9666
▁Reise	-9667
▁Bereitstellung	-9668
ane	-9669
▁lic	-9670
anträge	-9671
▁nation	-9672
▁rational	-9673
",	-9674
let	-9675
▁Zul	-9676
▁sensib	-9677
▁Vorrang	-9678
▁erfreut	-9679
▁Real	-9680
▁benachteil	-9681
▁Wiederaufbau	-9682
▁drast	-9683
▁Verwirklichung	-9684
▁Kräfte	-9685
▁Wähler	-9686
▁zulassen	-9687
▁italienischen	-9688
▁sieben	-9689
sprozesses	-9690
▁Verheugen	-9691
▁herrscht	-9692
▁wonach	-9693
▁Untersuchungen	-9694
▁abol	-9695
▁Vorred	-9696
▁Beschrän	-9697
▁Insbesondere	-9698
▁valu	-9699
▁Übrigen	-9700
▁af	-9701
▁believes	-9702
▁Einschrän	-9703
▁Fischereip	-9704
techn	-9705
▁proc	-9706
▁präz	-9707
ouverän	-9708
▁attra	-9709
▁beruht	-9710
▁Bürokrat	-9711
▁Bereitschaft	-9712
folgung	-9713
▁festgelegten	-9714
▁surve	-9715
▁charge	-9716
▁GUE	-9717
▁felt	-9718
▁monopol	-9719
▁bound	-9720
▁Prozent	-9721
▁Urteil	-9722
laubt	-9723
▁vorbe	-9724
▁budgets	-9725
▁appoint	-9726
▁universal	-9727
sh	-9728
▁genere	-9729
ops	-9730
▁vig	-9731
▁significantly	-9732
▁Pass	-9733
▁Subject	-9734
OM	-9735
▁ve	-9736
▁Bus	-9737
▁erinnert	-9738
cer	-9739
herr	-9740
▁Beschwer	-9741
sichts	-9742
▁offered	-9743
▁Emissions	-9744
▁waiting	-9745
▁verstehe	-9746
▁befürworten	-9747
care	-9748
▁Ashton	-9749
▁absence	-9750
▁unverzüglich	-9751
):	-9752
orry	-9753
▁Gebä	-9754
▁rechts	-9755
▁school	-9756
▁advance	-9757
▁Zeitplan	-9758
hner	-9759
▁shadow	-9760
▁dependent	-9761
▁Ausarbeitung	-9762
▁Hälfte	-9763
▁unmöglich	-9764
▁4.	-9765
imor	-9766
▁regrett	-9767
▁beob	-9768
schnitt	-9769
▁ongoing	-9770
▁steigen	-9771
▁coherent	-9772
▁deswegen	-9773
▁Represent	-9774
▁zuständig	-9775
▁Dikt	-9776
▁Renten	-9777
betracht	-9778
▁Methoden	-9779
▁Teilnahme	-9780
▁beschränken	-9781
kas	-9782
▁Mex	-9783
▁Instit	-9784
▁careful	-9785
▁identity	-9786
▁define	-9787
▁united	-9788
regelung	-9789
krit	-9790
hilos	-9791
▁Inkraft	-9792
An	-9793
▁Akt	-9794
▁Nutz	-9795
▁news	-9796
▁Prozeß	-9797
▁proved	-9798
▁acht	-9799
rate	-9800
▁fruit	-9801
wärtige	-9802
▁relativ	-9803
▁restructuring	-9804
mus	-9805
▁psy	-9806
▁Glück	-9807
▁wealth	-9808
▁Beseitigung	-9809
▁Außenminister	-9810
spartner	-9811
▁Fremdenverkehr	-9812
▁Labour	-9813
COM	-9814
NGL	-9815
▁kosten	-9816
▁letzter	-9817
▁supposed	-9818
▁Unterschied	-9819
▁Fischler	-9820
▁Ausgleich	-9821
spar	-9822
▁exter	-9823
▁accidents	-9824
▁clean	-9825
▁zunehmend	-9826
preise	-9827
ulsory	-9828
▁legally	-9829
▁qualifiz	-9830
▁difficulty	-9831
▁acknowledge	-9832
▁Car	-9833
grenze	-9834
lichkeiten	-9835
▁determination	-9836
yc	-9837
▁wine	-9838
▁eingebracht	-9839
▁stable	-9840
▁disposal	-9841
vertre	-9842
▁Monat	-9843
▁breach	-9844
▁Faktoren	-9845
IDS	-9846
▁Sy	-9847
▁verurteilen	-9848
▁37	-9849
▁Ungarn	-9850
▁changing	-9851
▁gegebenen	-9852
einamer	-9853
▁parallel	-9854
TA	-9855
▁Angeb	-9856
▁Küsten	-9857
▁waters	-9858
▁Anbetracht	-9859
verletzungen	-9860
ras	-9861
▁wait	-9862
▁Methode	-9863
ell	-9864
▁Staates	-9865
▁medical	-9866
▁Betrifft	-9867
▁dürfte	-9868
▁abzusch	-9869
▁erstens	-9870
▁mitteilen	-9871
▁significance	-9872
▁driving	-9873
▁ol	-9874
meid	-9875
inely	-9876
▁surv	-9877
▁Modern	-9878
▁üb	-9879
▁einsch	-9880
▁hinzufügen	-9881
▁Neben	-9882
▁Premier	-9883
uung	-9884
▁highlighted	-9885
gested	-9886
nischen	-9887
▁distin	-9888
führungs	-9889
▁extreme	-9890
▁verursacht	-9891
▁enth	-9892
schlossenheit	-9893
▁sodass	-9894
▁Fähigkeit	-9895
▁Finland	-9896
fisch	-9897
fleisch	-9898
▁einzig	-9899
▁welches	-9900
umed	-9901
gelassen	-9902
▁Sal	-9903
▁Heads	-9904
▁envis	-9905
▁Bedrohung	-9906
▁manufactur	-9907
▁Export	-9908
▁genuinely	-9909
chische	-9910
▁biolog	-9911
▁Protocol	-9912
▁preced	-9913
▁Control	-9914
▁entweder	-9915
▁früheren	-9916
▁patients	-9917
akes	-9918
▁beraten	-9919
bu	-9920
ork	-9921
deckt	-9922
verläss	-9923
▁resulting	-9924
▁Verhandlung	-9925
▁dient	-9926
▁vessels	-9927
niveau	-9928
▁understood	-9929
▁Mot	-9930
▁Latin	-9931
▁Donner	-9932
▁Consequently	-9933
▁Bil	-9934
▁amended	-9935
▁Volkes	-9936
produktion	-9937
▁Niger	-9938
▁Nachhalt	-9939
ctual	-9940
gebie	-9941
▁inzwischen	-9942
▁strategischen	-9943
laut	-9944
▁displa	-9945
▁Einstellung	-9946
hy	-9947
dex	-9948
anen	-9949
▁21.	-9950
▁Hindernisse	-9951
▁sichergestellt	-9952
ware	-9953
äumen	-9954
▁Tsch	-9955
▁geist	-9956
▁urban	-9957
▁stelle	-9958
▁valuable	-9959
▁Kontinent	-9960
▁rechtzeit	-9961
▁glaub	-9962
▁playing	-9963
▁privile	-9964
▁recall	-9965
▁beabsichtigt	-9966
roc	-9967
▁Steuerzahl	-9968
▁Ra	-9969
▁Wid	-9970
▁fine	-9971
▁deter	-9972
▁domin	-9973
flanzen	-9974
▁Fang	-9975
▁Wand	-9976
▁deliber	-9977
▁geehrte	-9978
fä	-9979
▁Kurz	-9980
▁Liberalen	-9981
▁antworten	-9982
okratischen	-9983
▁entstanden	-9984
ike	-9985
laß	-9986
▁Bau	-9987
▁sold	-9988
▁gewinnen	-9989
üssen	-9990
▁Mechanismen	-9991
▁negotiation	-9992
ays	-9993
▁medizin	-9994
▁acquis	-9995
▁seeing	-9996
▁referring	-9997
▁erf	-9998
ursday	-9999
versch	-10000
▁Ideen	-10001
▁gewün	-10002
▁holding	-10003
▁Food	-10004
▁choose	-10005
ländischen	-10006
▁anzunehmen	-10007
▁angenommenen	-10008
zy	-10009
napp	-10010
osite	-10011
atible	-10012
▁deficit	-10013
▁Hungarian	-10014
▁flood	-10015
füllung	-10016
handeln	-10017
▁figure	-10018
▁Rechten	-10019
▁exports	-10020
inken	-10021
Mittel	-10022
▁geregelt	-10023
kohol	-10024
▁speziellen	-10025
ALE	-10026
▁Mrd	-10027
▁primary	-10028
▁Thursday	-10029
▁Arbeitszeit	-10030
▁investieren	-10031
(200	-10032
▁Demokraten	-10033
▁ärm	-10034
▁Common	-10035
▁entfernt	-10036
▁kulturelle	-10037
▁External	-10038
ga	-10039
onte	-10040
▁leads	-10041
▁beeinträcht	-10042
▁Beiträge	-10043
▁president	-10044
▁Versammlung	-10045
ZB	-10046
osph	-10047
▁Handlungs	-10048
▁satisfactory	-10049
▁Haup	-10050
necess	-10051
▁Urspr	-10052
▁eight	-10053
gypt	-10054
▁Wohn	-10055
▁umfassend	-10056
igern	-10057
sprech	-10058
▁kurzfrist	-10059
▁weitgehend	-10060
▁murder	-10061
▁jährlich	-10062
▁learning	-10063
▁Grenze	-10064
▁gegenwärtige	-10065
ala	-10066
▁touch	-10067
▁bestehende	-10068
bleme	-10069
▁Laufe	-10070
atische	-10071
session	-10072
▁angest	-10073
▁zahlen	-10074
▁Merk	-10075
▁Menge	-10076
▁ambition	-10077
▁läßt	-10078
▁Wichtig	-10079
▁journal	-10080
▁lä	-10081
▁Bush	-10082
▁expert	-10083
▁considers	-10084
▁ausgezeichnete	-10085
katastrop	-10086
▁denjenigen	-10087
uers	-10088
tehen	-10089
▁absurd	-10090
▁offenen	-10091
▁divid	-10092
enntnisse	-10093
ses	-10094
▁Col	-10095
▁mid	-10096
sprogramme	-10097
SP	-10098
▁sustainability	-10099
eignet	-10100
▁gefährdet	-10101
▁Inner	-10102
mäßigen	-10103
▁slight	-10104
ER	-10105
▁2012	-10106
▁Gesam	-10107
▁einzur	-10108
▁Mü	-10109
▁neighbours	-10110
▁Allgemeinen	-10111
▁gewähren	-10112
CS	-10113
▁Umgang	-10114
▁Schulden	-10115
▁qualified	-10116
macht	-10117
▁Sicher	-10118
▁suggested	-10119
▁Cooperation	-10120
▁Buch	-10121
▁Statist	-10122
no	-10123
ground	-10124
▁Gewerk	-10125
▁Souverän	-10126
▁Abstimmungs	-10127
▁Stabilitäts	-10128
▁grundsätzlich	-10129
emm	-10130
▁Et	-10131
ürokrat	-10132
▁NRO	-10133
▁Before	-10134
▁Greens	-10135
schaffen	-10136
▁becomes	-10137
▁Verbrauchern	-10138
▁Verletzung	-10139
▁Bevölkerungs	-10140
▁bann	-10141
▁daily	-10142
▁Senkung	-10143
▁valid	-10144
▁assume	-10145
▁plants	-10146
▁Ursachen	-10147
▁requests	-10148
▁End	-10149
▁Where	-10150
▁Northern	-10151
▁Gerade	-10152
▁unnecess	-10153
eten	-10154
icks	-10155
▁süd	-10156
lared	-10157
▁aufnehmen	-10158
▁zone	-10159
▁ehemaligen	-10160
▁Har	-10161
▁television	-10162
▁Früh	-10163
▁cars	-10164
▁Georgia	-10165
▁Kontext	-10166
▁destruction	-10167
ugt	-10168
▁Sektors	-10169
opf	-10170
stens	-10171
▁Cong	-10172
▁Erfordern	-10173
▁türkischen	-10174
▁festzustellen	-10175
▁Einheit	-10176
▁Energies	-10177
▁beur	-10178
trieben	-10179
▁someone	-10180
▁75	-10181
rain	-10182
▁Noch	-10183
active	-10184
▁users	-10185
vergenz	-10186
▁Once	-10187
person	-10188
▁saw	-10189
▁Umstruktur	-10190
▁vorn	-10191
gefunden	-10192
▁Indones	-10193
▁politisches	-10194
▁neighbouring	-10195
aming	-10196
ährung	-10197
▁built	-10198
merken	-10199
▁angesehen	-10200
▁Bürokratie	-10201
house	-10202
orgungs	-10203
▁Austrian	-10204
▁Nachdruck	-10205
▁preparation	-10206
▁Schulz	-10207
▁VAT	-10208
isierungs	-10209
▁überwinden	-10210
ighten	-10211
illing	-10212
▁Teile	-10213
▁ports	-10214
▁bereitgestellt	-10215
▁actively	-10216
▁Erhaltung	-10217
AN	-10218
▁Moro	-10219
▁drug	-10220
gert	-10221
izza	-10222
▁Non	-10223
▁geraten	-10224
▁accident	-10225
▁Vertretern	-10226
▁bewältigen	-10227
▁constitute	-10228
▁Bitte	-10229
utragen	-10230
▁strugg	-10231
▁bezeichnet	-10232
▁maintained	-10233
▁numbers	-10234
▁elsewhere	-10235
▁Det	-10236
▁syn	-10237
▁milk	-10238
dien	-10239
kommun	-10240
▁Verab	-10241
▁Gefühl	-10242
▁medicines	-10243
ampere	-10244
▁Safety	-10245
▁eingeleitet	-10246
CE	-10247
sprozeß	-10248
▁Genehmigung	-10249
ovis	-10250
▁GDP	-10251
▁erlebt	-10252
▁Revision	-10253
▁speeches	-10254
▁schwierige	-10255
▁Ruß	-10256
▁sets	-10257
▁Kategor	-10258
▁Vorlage	-10259
▁angebracht	-10260
Parl	-10261
dessen	-10262
bas	-10263
betrie	-10264
▁Britain	-10265
▁collabor	-10266
geht	-10267
▁Zuge	-10268
▁version	-10269
▁wirkliche	-10270
▁Effe	-10271
▁weltweiten	-10272
ziele	-10273
▁Darf	-10274
▁liber	-10275
▁rechtliche	-10276
rückt	-10277
▁Drittstaaten	-10278
reds	-10279
▁Hinweis	-10280
▁Stockhol	-10281
▁thanking	-10282
▁investigation	-10283
▁Anlass	-10284
▁Schiffe	-10285
▁Stimmen	-10286
▁niedrig	-10287
Christian	-10288
▁benötigt	-10289
▁Ausgrenzung	-10290
▁rac	-10291
▁vereinf	-10292
▁confident	-10293
▁Premierminister	-10294
usal	-10295
sorge	-10296
▁endors	-10297
▁release	-10298
▁opposite	-10299
▁transitional	-10300
▁Hels	-10301
/2	-10302
krieg	-10303
▁getragen	-10304
▁meat	-10305
▁trial	-10306
▁zuges	-10307
▁höhere	-10308
▁sufficiently	-10309
▁beeinfl	-10310
▁obliged	-10311
▁aviation	-10312
bart	-10313
▁Brok	-10314
▁Dingen	-10315
▁partly	-10316
▁angekünd	-10317
▁identify	-10318
▁korr	-10319
▁timetable	-10320
▁Abgeordneter	-10321
▁previously	-10322
ixed	-10323
▁stands	-10324
▁verweisen	-10325
▁bla	-10326
▁prisoners	-10327
▁Entscheidungs	-10328
▁greatly	-10329
▁Over	-10330
▁Santer	-10331
▁Kontakt	-10332
▁satisfied	-10333
▁concentrate	-10334
▁Under	-10335
▁verank	-10336
▁intensive	-10337
▁Situationen	-10338
▁Nachhaltigkeit	-10339
/2003	-10340
▁team	-10341
▁During	-10342
▁reicht	-10343
▁Weiteren	-10344
partner	-10345
schutzes	-10346
▁autonom	-10347
zio	-10348
▁Bra	-10349
▁boost	-10350
▁consc	-10351
▁indicated	-10352
▁bedauerlich	-10353
▁Wesentlichen	-10354
▁12.00	-10355
▁Tampere	-10356
▁verschär	-10357
▁chines	-10358
▁großem	-10359
▁interpretation	-10360
-2013	-10361
▁passiert	-10362
▁beschränkt	-10363
▁incomp	-10364
getragen	-10365
▁horizont	-10366
▁Verts	-10367
▁genügend	-10368
▁demograph	-10369
zep	-10370
räsid	-10371
▁bewußt	-10372
▁intellig	-10373
▁zukünftigen	-10374
▁zurückzuführen	-10375
▁grav	-10376
▁Tisch	-10377
orb	-10378
▁Does	-10379
hilosoph	-10380
▁possibly	-10381
▁identified	-10382
▁langfristig	-10383
lymp	-10384
▁reaction	-10385
▁Konflikte	-10386
▁EIB	-10387
raums	-10388
stadt	-10389
gewöhn	-10390
▁Zielsetzungen	-10391
ancing	-10392
▁inadequate	-10393
fangen	-10394
isory	-10395
▁aftern	-10396
▁running	-10397
▁befürwortet	-10398
▁Besitz	-10399
▁Nachbarn	-10400
▁behaupten	-10401
40	-10402
inki	-10403
daten	-10404
▁tragic	-10405
▁zentrale	-10406
aching	-10407
ologie	-10408
▁trib	-10409
▁gesundheit	-10410
▁Welthandels	-10411
▁possibilities	-10412
▁Rü	-10413
▁Act	-10414
▁funktionieren	-10415
▁reconstruction	-10416
▁Wicht	-10417
▁negativen	-10418
▁reich	-10419
▁einseit	-10420
▁sout	-10421
▁zivil	-10422
▁Mutter	-10423
▁Without	-10424
▁Mitarbeiter	-10425
▁Tätigkeiten	-10426
▁Ak	-10427
▁EZB	-10428
▁species	-10429
▁Prozesses	-10430
▁interessiert	-10431
▁Inst	-10432
▁deserves	-10433
▁vorsieht	-10434
▁4,	-10435
free	-10436
▁Techn	-10437
problem	-10438
▁Gefäng	-10439
▁Leistungen	-10440
▁ausz	-10441
▁produz	-10442
▁gestatten	-10443
▁Donnerstag	-10444
▁garantiert	-10445
▁Perspektive	-10446
ollar	-10447
normen	-10448
▁Mehrwer	-10449
▁registr	-10450
▁strength	-10451
national	-10452
▁Thus	-10453
▁Verlauf	-10454
▁attempts	-10455
▁gearbeitet	-10456
▁judg	-10457
▁legt	-10458
enness	-10459
▁sugar	-10460
▁Allianz	-10461
▁Helsinki	-10462
▁moreover	-10463
▁verabschieden	-10464
aster	-10465
▁berecht	-10466
▁12.	-10467
▁Auth	-10468
▁Anstieg	-10469
▁Studien	-10470
▁angewandt	-10471
▁Verhaltens	-10472
▁Regulierung	-10473
▁Nachbarschaft	-10474
▁gebill	-10475
▁affects	-10476
▁compulsory	-10477
iety	-10478
itage	-10479
▁Roth	-10480
▁background	-10481
▁auftreten	-10482
▁endeavour	-10483
▁remove	-10484
▁Garantie	-10485
▁completed	-10486
▁launched	-10487
▁nächster	-10488
▁Gang	-10489
sekret	-10490
▁pleas	-10491
▁abgesch	-10492
▁himself	-10493
▁Errichtung	-10494
▁Konvergenz	-10495
▁scr	-10496
werke	-10497
▁objekt	-10498
▁Erreichung	-10499
▁Positionen	-10500
▁anzuwenden	-10501
iene	-10502
▁Fuß	-10503
▁Flor	-10504
▁Erfüllung	-10505
ranche	-10506
▁Burma	-10507
▁Abhäng	-10508
▁militärischen	-10509
austausch	-10510
ifik	-10511
messen	-10512
▁forts	-10513
▁Bol	-10514
▁suffered	-10515
rid	-10516
ifth	-10517
▁ungar	-10518
▁diesbezü	-10519
▁Aufhebung	-10520
▁beantworten	-10521
▁spezifische	-10522
▁implications	-10523
▁carrying	-10524
▁sav	-10525
▁debated	-10526
▁besonderer	-10527
▁kommun	-10528
▁Widerst	-10529
zeg	-10530
mung	-10531
▁pain	-10532
▁motor	-10533
ategory	-10534
▁freuen	-10535
▁jedenfalls	-10536
▁Pläne	-10537
▁helped	-10538
▁options	-10539
▁überaus	-10540
▁Partners	-10541
▁Christian	-10542
▁went	-10543
mäßige	-10544
▁Mechanismus	-10545
▁topic	-10546
▁unterschiedlich	-10547
▁motiv	-10548
zustimmen	-10549
▁extensive	-10550
▁Programmen	-10551
▁afternoon	-10552
▁Hilfs	-10553
▁Durchsetzung	-10554
ukture	-10555
▁sofern	-10556
Kon	-10557
▁zählen	-10558
▁hearing	-10559
▁facilities	-10560
KOM	-10561
▁Amt	-10562
▁prag	-10563
▁schäd	-10564
▁issued	-10565
▁Belgian	-10566
▁lengt	-10567
▁Having	-10568
▁Ausweit	-10569
▁Geschlechter	-10570
uoten	-10571
▁complicated	-10572
▁enforcement	-10573
▁befasst	-10574
do	-10575
bry	-10576
wasser	-10577
▁conducted	-10578
▁pred	-10579
ieller	-10580
▁centres	-10581
▁Secretary	-10582
▁wesentlicher	-10583
ierend	-10584
▁Govern	-10585
▁advertising	-10586
ader	-10587
▁Letz	-10588
ativer	-10589
▁Minuten	-10590
▁vorstellen	-10591
▁spezielle	-10592
▁Verabschied	-10593
▁ausgerichtet	-10594
würdig	-10595
iscrimin	-10596
▁verbundenen	-10597
▁gre	-10598
▁audi	-10599
▁stay	-10600
itives	-10601
▁southern	-10602
9,	-10603
▁einzelne	-10604
▁Angst	-10605
▁Nizza	-10606
itizens	-10607
▁ausgehen	-10608
▁Freihandels	-10609
▁Nice	-10610
▁unre	-10611
▁chosen	-10612
▁Wahrung	-10613
▁poorest	-10614
▁vorbereitet	-10615
▁Vorsitzenden	-10616
▁Kroatien	-10617
▁Gese	-10618
grunde	-10619
▁seeks	-10620
▁höchste	-10621
▁audiovis	-10622
int	-10623
ossier	-10624
▁Garantien	-10625
▁Verabschiedung	-10626
▁angep	-10627
asil	-10628
denkt	-10629
▁zugrunde	-10630
6-0	-10631
örung	-10632
▁trotzdem	-10633
▁Potenzial	-10634
▁Ausweitung	-10635
▁guaranteeing	-10636
▁hy	-10637
▁Textil	-10638
▁Herkunfts	-10639
▁prospects	-10640
osp	-10641
related	-10642
▁symbol	-10643
▁ausüben	-10644
▁tragedy	-10645
▁jegliche	-10646
abled	-10647
ufficient	-10648
▁reven	-10649
▁Präsid	-10650
ieß	-10651
▁alco	-10652
▁ablehnen	-10653
▁Representative	-10654
wohner	-10655
▁societies	-10656
▁vollständige	-10657
▁45	-10658
▁Klarheit	-10659
bre	-10660
▁heavy	-10661
▁Gemeinschaften	-10662
▁Dad	-10663
▁Gipfelt	-10664
▁ratified	-10665
▁intellectual	-10666
cas	-10667
prechen	-10668
▁surely	-10669
▁irgendein	-10670
▁Konk	-10671
▁Hamas	-10672
▁betrie	-10673
▁lernen	-10674
abilities	-10675
▁Halb	-10676
kehren	-10677
▁expand	-10678
▁definitely	-10679
▁Souveränität	-10680
▁Saddam	-10681
▁Beachtung	-10682
▁intentions	-10683
ährungs	-10684
Programm	-10685
▁reprodu	-10686
▁ausgeschlossen	-10687
▁considerations	-10688
▁koh	-10689
▁2000,	-10690
▁competent	-10691
elbe	-10692
▁whereby	-10693
weisung	-10694
▁schemes	-10695
IV	-10696
irable	-10697
▁Beamten	-10698
▁angemessenen	-10699
atures	-10700
▁admit	-10701
▁Existenz	-10702
▁Socialists	-10703
▁Mitgliedschaft	-10704
▁Arg	-10705
▁Anmerkungen	-10706
▁Regionalpolitik	-10707
anke	-10708
▁fassen	-10709
▁Experten	-10710
▁Emissionen	-10711
ano	-10712
hängt	-10713
▁Kapaz	-10714
▁deals	-10715
▁uneingeschränkt	-10716
▁App	-10717
▁dri	-10718
▁Jeder	-10719
▁poten	-10720
▁Gericht	-10721
läuft	-10722
▁Dokumente	-10723
▁einstimmig	-10724
▁Gesellschaften	-10725
▁entscheidenden	-10726
ery	-10727
▁müsste	-10728
▁Stunden	-10729
)).	-10730
reift	-10731
▁wann	-10732
▁Belgium	-10733
▁Auge	-10734
▁Straft	-10735
▁push	-10736
▁erlassen	-10737
▁zugestimmt	-10738
▁Verbreitung	-10739
raf	-10740
▁proof	-10741
▁spite	-10742
▁Home	-10743
▁Kernkraft	-10744
▁hyp	-10745
▁gemeinsames	-10746
▁Menschenrechten	-10747
▁Sup	-10748
▁Lith	-10749
▁house	-10750
▁diplomatic	-10751
▁Luxemburg	-10752
bek	-10753
▁Herz	-10754
▁hierbei	-10755
▁bedauere	-10756
▁openness	-10757
▁Tourismus	-10758
▁konsequent	-10759
▁sorgfältig	-10760
▁Mehrwertste	-10761
▁Ank	-10762
merkt	-10763
ophob	-10764
▁gelingt	-10765
▁keineswegs	-10766
▁finanzieren	-10767
▁entwickelten	-10768
▁langfristige	-10769
1,	-10770
berg	-10771
▁inev	-10772
▁aktive	-10773
▁worldwide	-10774
▁crop	-10775
▁hinweg	-10776
▁Serbien	-10777
strä	-10778
▁genehm	-10779
lor	-10780
▁addressing	-10781
▁6.	-10782
▁Four	-10783
holders	-10784
▁depart	-10785
▁Dadurch	-10786
▁Vertrages	-10787
▁militärische	-10788
▁Kennzeichnung	-10789
▁Dän	-10790
licit	-10791
▁Ausbe	-10792
▁Lithu	-10793
▁sympath	-10794
reiber	-10795
▁Olymp	-10796
▁Förder	-10797
▁Agenturen	-10798
▁Presidents	-10799
Der	-10800
▁Term	-10801
eline	-10802
▁müssten	-10803
build	-10804
▁belg	-10805
uklear	-10806
▁sorry	-10807
▁schwedischen	-10808
▁Hungary	-10809
▁Augenblick	-10810
ileo	-10811
▁Cent	-10812
▁purely	-10813
▁maß	-10814
▁infolge	-10815
▁spür	-10816
▁Chair	-10817
▁Strom	-10818
onien	-10819
▁Grem	-10820
▁unnöt	-10821
▁Verordnungen	-10822
▁Gut	-10823
▁mistake	-10824
▁gap	-10825
▁size	-10826
▁auswirken	-10827
dire	-10828
ätzen	-10829
▁ergänz	-10830
▁langen	-10831
▁wünsch	-10832
12	-10833
feind	-10834
▁befürworte	-10835
▁sil	-10836
▁successfully	-10837
ading	-10838
▁lenken	-10839
▁überlassen	-10840
."	-10841
▁coal	-10842
▁günst	-10843
▁essentially	-10844
SK	-10845
astro	-10846
▁insp	-10847
▁cities	-10848
völkerung	-10849
▁Partnership	-10850
▁unanimously	-10851
achter	-10852
commun	-10853
▁Autom	-10854
▁veränder	-10855
▁nationals	-10856
▁laut	-10857
▁worst	-10858
▁erlaubt	-10859
▁abgegeben	-10860
▁governing	-10861
▁anerkennen	-10862
▁cuts	-10863
▁hängt	-10864
▁approx	-10865
▁opened	-10866
▁demanding	-10867
▁breite	-10868
▁solely	-10869
tag	-10870
wesenheit	-10871
▁Problematik	-10872
▁hundreds	-10873
▁pensions	-10874
▁detaill	-10875
▁count	-10876
▁Finnland	-10877
▁Gefangen	-10878
▁betreiben	-10879
schreitende	-10880
▁Jahrhunder	-10881
▁stattfindet	-10882
▁percent	-10883
▁verboten	-10884
▁relatively	-10885
ola	-10886
ales	-10887
leitung	-10888
bestimmungen	-10889
▁Erarbeitung	-10890
COD	-10891
ängst	-10892
▁menschliche	-10893
▁Abhängigkeit	-10894
▁chr	-10895
▁rul	-10896
emost	-10897
▁Galileo	-10898
▁Inkrafttreten	-10899
▁pan	-10900
▁refers	-10901
▁worrying	-10902
▁increases	-10903
/2001)	-10904
▁inakzeptabel	-10905
▁36	-10906
▁Danish	-10907
chst	-10908
▁McC	-10909
ication	-10910
▁Bon	-10911
▁acting	-10912
▁erteilen	-10913
▁extending	-10914
ova	-10915
▁correctly	-10916
▁producing	-10917
▁bedeutende	-10918
▁7.	-10919
▁hart	-10920
▁recip	-10921
▁easily	-10922
▁Migration	-10923
▁Ta	-10924
▁hous	-10925
▁susp	-10926
▁Schäden	-10927
▁threats	-10928
▁stressed	-10929
▁drän	-10930
▁texts	-10931
▁Aspekten	-10932
▁vertritt	-10933
▁öff	-10934
▁Partnern	-10935
▁offenbar	-10936
▁mach	-10937
▁Tragö	-10938
▁dispute	-10939
▁BIP	-10940
▁Temp	-10941
▁chap	-10942
▁forg	-10943
▁harmful	-10944
abkommens	-10945
▁explicit	-10946
▁reduzieren	-10947
▁lag	-10948
ältigung	-10949
▁reichen	-10950
▁Weißbuch	-10951
▁foremost	-10952
▁Tsche	-10953
▁Akteure	-10954
▁verletzt	-10955
▁Einkommen	-10956
▁Modernisierung	-10957
scale	-10958
▁esc	-10959
feiler	-10960
▁bildet	-10961
▁schritt	-10962
▁veröffentlicht	-10963
Parliament	-10964
▁stattgefunden	-10965
▁beruhen	-10966
wind	-10967
rolle	-10968
▁Demon	-10969
▁beibe	-10970
▁österreich	-10971
▁beef	-10972
▁fert	-10973
▁tools	-10974
▁besitzt	-10975
▁dargelegt	-10976
▁phenomenon	-10977
tini	-10978
kontroll	-10979
▁rapidly	-10980
▁schreck	-10981
▁genannte	-10982
▁granting	-10983
▁respects	-10984
▁determine	-10985
▁tort	-10986
▁zuerst	-10987
▁hopes	-10988
▁langsam	-10989
▁remaining	-10990
ites	-10991
▁Tunis	-10992
▁depends	-10993
▁players	-10994
▁Konsultation	-10995
▁kontrollieren	-10996
▁Time	-10997
ührt	-10998
artige	-10999
▁profits	-11000
▁core	-11001
▁Zentr	-11002
▁Trotzdem	-11003
operations	-11004
▁Argumente	-11005
▁taxpayers	-11006
▁Dass	-11007
▁geographical	-11008
14	-11009
▁Kann	-11010
▁pict	-11011
▁claims	-11012
▁inf	-11013
ussen	-11014
▁extraordin	-11015
▁10.	-11016
▁Bro	-11017
▁Betriebe	-11018
▁Budgetary	-11019
▁Zahlungen	-11020
▁generation	-11021
wä	-11022
grad	-11023
ahlung	-11024
▁decades	-11025
▁heritage	-11026
▁advantages	-11027
▁chairman	-11028
▁angewendet	-11029
anst	-11030
igert	-11031
▁Hohe	-11032
hrt	-11033
erre	-11034
▁town	-11035
räumen	-11036
▁illustr	-11037
▁Ausbeutung	-11038
▁Grow	-11039
wertet	-11040
▁Joint	-11041
▁fortz	-11042
▁exceed	-11043
▁enabling	-11044
▁respektieren	-11045
▁Sloven	-11046
ießen	-11047
▁skills	-11048
▁dictators	-11049
▁strukture	-11050
zusammenarbeit	-11051
pla	-11052
▁advice	-11053
mitglied	-11054
▁promised	-11055
▁Kir	-11056
▁Berg	-11057
▁Both	-11058
▁Arbeitgeber	-11059
▁considerably	-11060
kul	-11061
▁neutr	-11062
▁Formulierung	-11063
▁Mod	-11064
▁Tai	-11065
▁jener	-11066
▁sobald	-11067
▁Erwägung	-11068
▁quote	-11069
usstsein	-11070
▁Nachfrage	-11071
▁Wichtigkeit	-11072
▁afr	-11073
▁Rass	-11074
▁mitge	-11075
▁Funktionieren	-11076
▁Left	-11077
▁mangeln	-11078
▁Vorredner	-11079
teneg	-11080
▁prosec	-11081
▁Tourism	-11082
▁Cuba	-11083
▁geplan	-11084
▁communications	-11085
ziplin	-11086
▁rigor	-11087
▁untersuchen	-11088
▁reve	-11089
lächen	-11090
▁bureaucracy	-11091
▁Bosnia	-11092
▁environmentally	-11093
▁Vorstellung	-11094
▁verantwortungs	-11095
▁geeignet	-11096
▁schneller	-11097
VP	-11098
lles	-11099
innock	-11100
▁Anhörung	-11101
▁suitable	-11102
loc	-11103
paket	-11104
iberal	-11105
▁Forum	-11106
▁Betrag	-11107
▁Growth	-11108
▁charges	-11109
äte	-11110
ifies	-11111
jekte	-11112
▁Kinnock	-11113
essions	-11114
▁feeling	-11115
▁aktuelle	-11116
▁reliable	-11117
▁Referendum	-11118
attung	-11119
▁oppose	-11120
▁Kapitel	-11121
▁umfasst	-11122
▁staatliche	-11123
▁Herstellung	-11124
ounting	-11125
▁Identität	-11126
▁Beratungen	-11127
▁beseitigen	-11128
▁ECB	-11129
gefähr	-11130
regionen	-11131
▁cop	-11132
zeichen	-11133
▁declared	-11134
▁verändert	-11135
▁IC	-11136
▁faith	-11137
▁proud	-11138
▁verschw	-11139
▁experienced	-11140
▁savings	-11141
▁Ergebnissen	-11142
▁ded	-11143
▁steuer	-11144
▁vorhin	-11145
▁Jahrzehn	-11146
▁erwiesen	-11147
urt	-11148
▁Sw	-11149
▁dän	-11150
ception	-11151
med	-11152
▁Di	-11153
omin	-11154
▁Rußland	-11155
▁westlichen	-11156
8/	-11157
▁Wird	-11158
▁gemeinsamer	-11159
▁black	-11160
▁spend	-11161
▁paying	-11162
▁Aussage	-11163
derte	-11164
lieben	-11165
▁regrettable	-11166
leid	-11167
▁tonn	-11168
▁reass	-11169
ahrt	-11170
▁Behörde	-11171
▁categor	-11172
▁Schutzes	-11173
▁eindeutige	-11174
pet	-11175
▁super	-11176
▁bürokrat	-11177
▁Autonom	-11178
▁clarity	-11179
wing	-11180
▁gep	-11181
▁Grad	-11182
▁Belgien	-11183
▁Assoc	-11184
▁Clear	-11185
▁focused	-11186
▁manufacturers	-11187
▁obser	-11188
▁Kompromiß	-11189
▁passenger	-11190
ärenz	-11191
▁Wald	-11192
▁doubts	-11193
▁controvers	-11194
▁eingeschrän	-11195
▁strategische	-11196
▁Rural	-11197
gerufen	-11198
▁Zuständigkeiten	-11199
▁Finanzkrise	-11200
▁rechtzeitig	-11201
▁Pf	-11202
agent	-11203
▁Monti	-11204
▁Gewicht	-11205
▁Georgien	-11206
▁erlauben	-11207
▁wirklichen	-11208
▁awa	-11209
▁Frist	-11210
everkehr	-11211
▁unabhängigen	-11212
▁gehe	-11213
▁bürger	-11214
▁Abschluß	-11215
▁contributed	-11216
▁heading	-11217
▁historical	-11218
gestellten	-11219
▁willingness	-11220
gelöst	-11221
▁hervorragende	-11222
▁Authority	-11223
ws	-11224
repr	-11225
▁Arme	-11226
▁Follow	-11227
▁direkte	-11228
▁crises	-11229
▁erörtert	-11230
▁Gestatten	-11231
▁violation	-11232
▁evident	-11233
▁imagine	-11234
▁Prov	-11235
▁owners	-11236
▁protocol	-11237
▁schlagen	-11238
▁undertakings	-11239
▁anwenden	-11240
▁früh	-11241
ualitäts	-11242
▁erwarte	-11243
▁emphasised	-11244
▁Dauer	-11245
▁promp	-11246
▁entered	-11247
▁convention	-11248
▁favourable	-11249
▁unterbreitet	-11250
13	-11251
hance	-11252
▁Netze	-11253
▁chann	-11254
itarian	-11255
▁verdienen	-11256
▁applications	-11257
eitern	-11258
wiesen	-11259
▁geschä	-11260
▁Zugangs	-11261
▁Jugendlichen	-11262
▁Eltern	-11263
▁biggest	-11264
▁encouraged	-11265
▁Niederlanden	-11266
rating	-11267
▁Offenheit	-11268
▁effektive	-11269
weilen	-11270
▁Monteneg	-11271
▁festlegen	-11272
▁applicable	-11273
▁Energiepolitik	-11274
▁Zuf	-11275
rechtlichen	-11276
▁weg	-11277
reprene	-11278
▁welchem	-11279
▁regarded	-11280
▁russischen	-11281
▁upd	-11282
▁healthy	-11283
▁amtierender	-11284
▁vorzunehmen	-11285
▁praktische	-11286
▁gegenseitigen	-11287
LT	-11288
▁powerful	-11289
put	-11290
▁wenden	-11291
▁Alternative	-11292
ser	-11293
adem	-11294
etschen	-11295
▁indirect	-11296
▁Taten	-11297
▁stolz	-11298
▁beibehalten	-11299
▁abschließend	-11300
CNS	-11301
emin	-11302
▁cod	-11303
▁compon	-11304
▁modified	-11305
▁reflected	-11306
▁Ministerrat	-11307
▁competences	-11308
▁Maced	-11309
▁pharm	-11310
▁replace	-11311
▁vorgehen	-11312
ato	-11313
reibt	-11314
▁Lohn	-11315
▁calc	-11316
riment	-11317
▁Egypt	-11318
▁ships	-11319
▁legitimacy	-11320
▁Energiequellen	-11321
.-	-11322
17	-11323
aid	-11324
emark	-11325
▁Anträge	-11326
▁Territor	-11327
▁überwachen	-11328
▁hit	-11329
mosph	-11330
▁enhance	-11331
▁enthaltenen	-11332
▁unnecessary	-11333
rüst	-11334
änen	-11335
▁Mult	-11336
▁erörtern	-11337
▁Regul	-11338
▁straf	-11339
spflicht	-11340
▁Bosnien	-11341
▁präsent	-11342
▁internen	-11343
▁Wirksamkeit	-11344
▁constitutes	-11345
▁arise	-11346
▁Sommer	-11347
gerichts	-11348
▁article	-11349
▁Verteilung	-11350
▁Parliamentary	-11351
uding	-11352
▁Oste	-11353
▁aufr	-11354
▁whereas	-11355
antwortung	-11356
icate	-11357
▁1992	-11358
▁Gelt	-11359
staates	-11360
ubringen	-11361
▁endgültige	-11362
wirtschaften	-11363
instrumente	-11364
ariat	-11365
▁Abbau	-11366
▁Polish	-11367
▁commend	-11368
▁dynamic	-11369
▁Entschäd	-11370
▁certainty	-11371
▁bewerten	-11372
iles	-11373
apital	-11374
▁wahren	-11375
PA	-11376
▁vertre	-11377
▁reaching	-11378
▁fortsetzen	-11379
finanzierung	-11380
▁Jahrhundert	-11381
▁historischen	-11382
▁beschließen	-11383
▁gerechtfertigt	-11384
ECD	-11385
▁Log	-11386
verhält	-11387
ifizieren	-11388
▁Vielzahl	-11389
▁detriment	-11390
▁Abstimmungen	-11391
▁eye	-11392
▁engage	-11393
▁Stockholm	-11394
▁negotiated	-11395
▁Steuerzahler	-11396
▁Phän	-11397
▁purch	-11398
▁weist	-11399
▁Vision	-11400
▁Europar	-11401
▁performance	-11402
▁demokratisch	-11403
▁schwerwiegen	-11404
ense	-11405
▁ASE	-11406
weite	-11407
▁firms	-11408
▁Denmark	-11409
▁removed	-11410
▁schools	-11411
▁Rassismus	-11412
▁courts	-11413
▁Krankheit	-11414
▁verstärkte	-11415
wirtschaftung	-11416
▁incorporated	-11417
▁RE	-11418
▁Morgen	-11419
▁affecting	-11420
▁succeeded	-11421
▁Dokumenten	-11422
▁griechischen	-11423
▁supplementary	-11424
▁Lit	-11425
▁oben	-11426
▁restor	-11427
▁widerspie	-11428
fers	-11429
omet	-11430
ürzt	-11431
▁Roh	-11432
▁earth	-11433
emiss	-11434
▁mehrfach	-11435
vented	-11436
▁punish	-11437
▁höheren	-11438
▁geeignete	-11439
▁Mazed	-11440
▁läuft	-11441
träglich	-11442
▁bedauern	-11443
▁Telekommun	-11444
icro	-11445
quiry	-11446
▁Häfen	-11447
hme	-11448
ield	-11449
▁Ausschüsse	-11450
elte	-11451
ektor	-11452
▁noon	-11453
aushalt	-11454
▁5,	-11455
▁She	-11456
Ebene	-11457
▁laufenden	-11458
▁Journalisten	-11459
▁französische	-11460
IA	-11461
lingen	-11462
▁Blair	-11463
▁Besteuerung	-11464
nimmt	-11465
▁airlines	-11466
▁Association	-11467
▁auswärtige	-11468
habt	-11469
icans	-11470
▁island	-11471
▁Legislativ	-11472
▁zukünftige	-11473
ieden	-11474
▁Kriegs	-11475
▁Minderheit	-11476
owski	-11477
▁vast	-11478
endung	-11479
▁verhe	-11480
▁generell	-11481
▁everybody	-11482
▁ratifiziert	-11483
▁Baron	-11484
ichtbar	-11485
verbrauch	-11486
▁inflation	-11487
▁eingeräumt	-11488
▁fairly	-11489
▁Zustand	-11490
freiheiten	-11491
▁zusätzlich	-11492
▁Grundsätzen	-11493
Er	-11494
afrika	-11495
▁Aufgrund	-11496
mechanismus	-11497
▁Ung	-11498
▁hilf	-11499
▁rück	-11500
▁persu	-11501
▁Citizens	-11502
▁obtained	-11503
8,	-11504
bargo	-11505
▁radical	-11506
▁regelmäßig	-11507
iary	-11508
▁tests	-11509
▁Aufent	-11510
▁summer	-11511
▁mussten	-11512
▁surround	-11513
▁Begründung	-11514
▁Raums	-11515
▁sagten	-11516
▁aggress	-11517
▁Dänemark	-11518
▁durchzusetzen	-11519
baus	-11520
▁400	-11521
▁unab	-11522
▁Civil	-11523
ziellen	-11524
▁zugute	-11525
ergeb	-11526
▁Huss	-11527
▁hence	-11528
anspruch	-11529
telligen	-11530
▁konzentriert	-11531
▁institutionelle	-11532
▁ren	-11533
▁ergibt	-11534
▁Versorgung	-11535
dienstleistungen	-11536
derten	-11537
▁Genau	-11538
▁weight	-11539
▁schweren	-11540
▁applicant	-11541
ungsmaßnahmen	-11542
▁tie	-11543
▁reiterate	-11544
▁formuliert	-11545
▁Ratsvorsitzes	-11546
utreten	-11547
▁verehrten	-11548
▁vereinbart	-11549
▁8.	-11550
ausgaben	-11551
▁kleiner	-11552
▁intervene	-11553
rik	-11554
▁subjects	-11555
laden	-11556
▁ermutigen	-11557
▁disappoint	-11558
▁citizenship	-11559
▁consequence	-11560
▁book	-11561
.'	-11562
▁keinem	-11563
▁Krie	-11564
▁drit	-11565
▁zweif	-11566
isses	-11567
▁rund	-11568
▁reagiert	-11569
▁religion	-11570
enk	-11571
/97)	-11572
klärt	-11573
▁sake	-11574
ications	-11575
▁Fassung	-11576
▁Produkten	-11577
▁definiert	-11578
mechanismen	-11579
▁Hersteller	-11580
akei	-11581
fuhren	-11582
▁Süden	-11583
cycling	-11584
▁laufen	-11585
▁utmost	-11586
▁unterbrochen	-11587
lief	-11588
▁Bio	-11589
▁Hel	-11590
▁chain	-11591
▁explanation	-11592
▁insufficient	-11593
▁ziel	-11594
▁ersetzen	-11595
▁schließe	-11596
▁begeg	-11597
▁marketing	-11598
▁belief	-11599
▁sought	-11600
▁Service	-11601
demokraten	-11602
▁Heimatland	-11603
16	-11604
lesen	-11605
▁Infl	-11606
▁enorme	-11607
▁eastern	-11608
▁disabled	-11609
mitglieder	-11610
▁Sicherung	-11611
▁eingerichtet	-11612
(9	-11613
▁Like	-11614
▁thres	-11615
▁leader	-11616
▁Industry	-11617
▁presenting	-11618
itze	-11619
übung	-11620
▁zustande	-11621
ifferen	-11622
▁Mängel	-11623
▁alcohol	-11624
▁deeply	-11625
▁mother	-11626
▁Legitim	-11627
▁Kohäsions	-11628
▁Einwanderer	-11629
▁vorhandenen	-11630
ahme	-11631
▁night	-11632
▁streng	-11633
▁bedroht	-11634
▁besitzen	-11635
▁Gesetzgeb	-11636
▁reservations	-11637
▁Vorgehensweise	-11638
4,	-11639
inea	-11640
resh	-11641
▁Far	-11642
▁excluded	-11643
▁targeted	-11644
▁Lateinamer	-11645
▁erneuerbaren	-11646
▁Stabilitätspakt	-11647
▁Zim	-11648
▁fit	-11649
▁smaller	-11650
▁Randlage	-11651
▁gelingen	-11652
▁Protokolls	-11653
ibi	-11654
zerr	-11655
▁Vern	-11656
▁Betroffen	-11657
▁sched	-11658
▁Führer	-11659
▁Gebrauch	-11660
▁obligator	-11661
▁Gerichtshofs	-11662
ids	-11663
arding	-11664
fraid	-11665
▁south	-11666
zusehen	-11667
▁afraid	-11668
isziplin	-11669
▁deserve	-11670
▁willkommen	-11671
deten	-11672
olition	-11673
▁Beziehung	-11674
lern	-11675
icken	-11676
▁ster	-11677
▁aside	-11678
▁Fragest	-11679
▁Its	-11680
▁piece	-11681
▁Rückkehr	-11682
emor	-11683
erei	-11684
▁Madrid	-11685
▁entreprene	-11686
▁CF	-11687
▁began	-11688
▁basiert	-11689
▁incon	-11690
▁divers	-11691
▁bekräftigt	-11692
▁erarbeitet	-11693
größ	-11694
▁door	-11695
▁Klimawandels	-11696
klar	-11697
tinu	-11698
▁kümm	-11699
▁psych	-11700
▁lieber	-11701
▁postpon	-11702
zahlungen	-11703
iodiversity	-11704
▁save	-11705
▁mac	-11706
irmen	-11707
▁Betriebs	-11708
▁Sehr	-11709
▁derer	-11710
▁straight	-11711
sekretär	-11712
▁Hussein	-11713
▁ökologischen	-11714
wohn	-11715
▁treaties	-11716
▁Konvention	-11717
▁getr	-11718
▁anstre	-11719
▁restore	-11720
▁Ausführung	-11721
▁Prävention	-11722
▁Marok	-11723
▁creates	-11724
▁Get	-11725
lösung	-11726
▁fördert	-11727
▁erwähnten	-11728
▁verändern	-11729
▁regionaler	-11730
▁endgültigen	-11731
▁necessarily	-11732
▁IN	-11733
▁nehme	-11734
▁jointly	-11735
gä	-11736
bod	-11737
nism	-11738
▁20.	-11739
▁zweiter	-11740
▁drafting	-11741
▁bedeutsam	-11742
▁stip	-11743
▁Haushaltsplans	-11744
▁Tal	-11745
▁Jugoslaw	-11746
ersön	-11747
teren	-11748
actions	-11749
lls	-11750
dung	-11751
tran	-11752
▁Air	-11753
▁tonnes	-11754
speriode	-11755
▁unterbreiten	-11756
▁Gipfeltreffen	-11757
▁Mittelmeerraum	-11758
fug	-11759
▁Bis	-11760
▁Kuba	-11761
▁Mobil	-11762
▁persönlichen	-11763
▁gemein	-11764
▁kommer	-11765
▁raising	-11766
politische	-11767
▁äußerster	-11768
▁mündlichen	-11769
▁gegenseitige	-11770
üge	-11771
▁gefährlich	-11772
▁Milose	-11773
▁negotiate	-11774
▁konstruktive	-11775
like	-11776
▁Rind	-11777
▁anticip	-11778
▁Kooperations	-11779
nismäß	-11780
▁leaving	-11781
▁privat	-11782
Richtlinie	-11783
▁Feststellung	-11784
gal	-11785
▁mak	-11786
aring	-11787
▁korrig	-11788
▁erfordern	-11789
pir	-11790
gebiete	-11791
▁Culture	-11792
istischer	-11793
▁Hong	-11794
▁unres	-11795
▁Slovakia	-11796
▁vornehmen	-11797
▁Rechtsrahmen	-11798
Art	-11799
▁wording	-11800
chenschaft	-11801
▁vernünftig	-11802
▁suggestions	-11803
uert	-11804
▁electoral	-11805
▁bilateralen	-11806
sebene	-11807
atorium	-11808
▁Dr	-11809
▁Umfeld	-11810
▁Kranken	-11811
▁Kohärenz	-11812
ka	-11813
läß	-11814
▁greenhouse	-11815
akis	-11816
▁Übertrag	-11817
▁Initiativ	-11818
imp	-11819
tige	-11820
while	-11821
▁Tieren	-11822
▁buildings	-11823
▁simplification	-11824
ames	-11825
bedarf	-11826
▁Spann	-11827
▁Zimbabwe	-11828
▁credible	-11829
▁Fragestunde	-11830
otte	-11831
ietnam	-11832
▁plural	-11833
▁Fleisch	-11834
▁ordinary	-11835
▁vorliegt	-11836
▁einführen	-11837
▁sogenannten	-11838
▁pact	-11839
▁erteilt	-11840
▁interpre	-11841
▁fleet	-11842
▁persec	-11843
▁terrible	-11844
▁importantly	-11845
kreis	-11846
▁surprised	-11847
▁auseinander	-11848
▁immen	-11849
äbe	-11850
aire	-11851
▁warn	-11852
▁carbon	-11853
forschung	-11854
▁Grundlagen	-11855
▁macro	-11856
▁Bureau	-11857
aret	-11858
using	-11859
weiten	-11860
▁umgehen	-11861
▁Ausnahmen	-11862
▁incentives	-11863
▁repeatedly	-11864
imate	-11865
▁Montenegro	-11866
▁declarations	-11867
▁95	-11868
▁ineff	-11869
▁checks	-11870
▁Bu	-11871
ländische	-11872
▁outstanding	-11873
▁Frat	-11874
periode	-11875
▁Gewäss	-11876
unktions	-11877
▁derog	-11878
▁respektiert	-11879
ric	-11880
▁17.	-11881
opard	-11882
▁watch	-11883
wachsen	-11884
▁Amerika	-11885
▁zugelassen	-11886
▁Entschließungen	-11887
▁wage	-11888
▁sincer	-11889
▁federal	-11890
▁welcomes	-11891
▁Off	-11892
▁yes	-11893
▁Paris	-11894
▁soweit	-11895
▁expressing	-11896
▁Ebenen	-11897
)0	-11898
inent	-11899
▁depr	-11900
▁senken	-11901
▁ap	-11902
▁prev	-11903
zuarbeiten	-11904
▁bestimmen	-11905
▁Terroristen	-11906
irma	-11907
▁Kommissare	-11908
bate	-11909
iban	-11910
▁eyes	-11911
bindung	-11912
▁justify	-11913
▁Gestaltung	-11914
▁erheblichen	-11915
▁bereitet	-11916
▁beobachten	-11917
▁Slowakei	-11918
▁examined	-11919
▁armed	-11920
▁geein	-11921
igranten	-11922
▁showing	-11923
▁Äußerungen	-11924
▁bureaucratic	-11925
ruf	-11926
▁solch	-11927
▁Taiwan	-11928
▁cert	-11929
steuer	-11930
▁Bestimmung	-11931
▁OECD	-11932
▁leid	-11933
▁shock	-11934
ressive	-11935
▁diskrimin	-11936
▁bisherigen	-11937
▁contradict	-11938
▁Unsicherheit	-11939
▁accur	-11940
▁Kompetenzen	-11941
oni	-11942
▁150	-11943
▁combined	-11944
▁employers	-11945
ähe	-11946
eken	-11947
▁dro	-11948
ental	-11949
▁werte	-11950
▁nachdenken	-11951
▁weaken	-11952
▁healthcare	-11953
▁settlement	-11954
▁representation	-11955
▁Well	-11956
comings	-11957
▁Betrug	-11958
▁Kompetenz	-11959
▁verwiesen	-11960
▁natürlichen	-11961
aktiv	-11962
▁unions	-11963
▁hingegen	-11964
tokoll	-11965
▁redund	-11966
▁Mazedonien	-11967
▁Landwirtschafts	-11968
▁rid	-11969
zeiten	-11970
▁HIV	-11971
sektors	-11972
▁Tonnen	-11973
▁Projekten	-11974
▁complaints	-11975
▁Unterzeichnung	-11976
bie	-11977
/199	-11978
▁kinds	-11979
▁Lasten	-11980
ängerung	-11981
▁Nigeria	-11982
▁Vietnam	-11983
▁ausgest	-11984
▁science	-11985
▁Following	-11986
▁suspended	-11987
▁Dat	-11988
▁erwähnte	-11989
DR	-11990
▁überras	-11991
spolitiken	-11992
jud	-11993
▁Leban	-11994
▁Laeken	-11995
▁eliminate	-11996
▁Dien	-11997
▁delays	-11998
▁hardly	-11999
▁Alkohol	-12000
▁Datenschutz	-12001
▁Zwar	-12002
oleranz	-12003
▁Frattini	-12004
▁unemployed	-12005
ambod	-12006
▁Subst	-12007
▁Freedom	-12008
▁exceptional	-12009
▁reflects	-12010
▁shortcomings	-12011
▁Haushaltsjahr	-12012
fted	-12013
alling	-12014
▁Schrift	-12015
sprach	-12016
▁Drittel	-12017
▁erinnere	-12018
▁Cot	-12019
▁Del	-12020
craft	-12021
▁ries	-12022
▁Tenden	-12023
▁bewähr	-12024
▁transactions	-12025
▁9.	-12026
▁nearly	-12027
▁Morocco	-12028
erne	-12029
mögen	-12030
zil	-12031
▁Most	-12032
olonial	-12033
bevölkerung	-12034
▁Ents	-12035
▁broader	-12036
▁Eurostat	-12037
▁zugänglich	-12038
▁vernünftige	-12039
kriterien	-12040
▁pleasure	-12041
▁erarbeiten	-12042
▁foundations	-12043
ußen	-12044
▁organiz	-12045
▁Investment	-12046
▁Je	-12047
▁1993	-12048
▁0,	-12049
fügt	-12050
hole	-12051
▁Visa	-12052
isierte	-12053
▁revised	-12054
▁candidates	-12055
▁0.	-12056
▁Barn	-12057
▁ober	-12058
▁glück	-12059
▁Futter	-12060
▁Är	-12061
road	-12062
▁Eth	-12063
▁Chem	-12064
▁trend	-12065
▁offene	-12066
terung	-12067
▁fourth	-12068
▁Management	-12069
▁grundlegender	-12070
▁fewer	-12071
▁Papier	-12072
situation	-12073
ugoslavia	-12074
▁beizutragen	-12075
▁EVP	-12076
reise	-12077
stuff	-12078
▁geprä	-12079
▁turned	-12080
sprochen	-12081
▁direkten	-12082
▁beantwortet	-12083
mod	-12084
itts	-12085
annes	-12086
▁Dim	-12087
▁none	-12088
bestände	-12089
▁underline	-12090
het	-12091
▁discip	-12092
▁forest	-12093
▁Werbung	-12094
▁deadline	-12095
acio	-12096
▁prem	-12097
▁perpet	-12098
▁Albania	-12099
▁biodiversity	-12100
elled	-12101
unahme	-12102
▁dieselben	-12103
.,	-12104
pread	-12105
▁familiar	-12106
▁hergestellt	-12107
▁Finanzmittel	-12108
ikas	-12109
▁jeopard	-12110
▁Seeverkehr	-12111
▁verpflicht	-12112
▁2000.	-12113
▁blood	-12114
▁Ausbau	-12115
▁Ausnahm	-12116
▁ärmsten	-12117
communications	-12118
bereichen	-12119
▁Amerikan	-12120
▁Material	-12121
▁herbe	-12122
schläge	-12123
idespread	-12124
▁erscheinen	-12125
▁demokratischer	-12126
▁youth	-12127
gelegte	-12128
▁transatlantic	-12129
how	-12130
▁Licht	-12131
▁Macedonia	-12132
▁praktischen	-12133
Ent	-12134
reite	-12135
Program	-12136
▁Autonomie	-12137
▁untersucht	-12138
▁Ehre	-12139
fertigen	-12140
▁bestand	-12141
▁periods	-12142
ße	-12143
▁quar	-12144
▁verzeichnen	-12145
▁Grundfreiheiten	-12146
▁TAC	-12147
viously	-12148
▁oftmals	-12149
iring	-12150
▁Titel	-12151
▁below	-12152
▁Verlust	-12153
▁ehrlich	-12154
▁category	-12155
▁13.	-12156
▁Dav	-12157
▁Komm	-12158
▁relate	-12159
▁selten	-12160
▁interessant	-12161
züge	-12162
ofern	-12163
▁Umwel	-12164
▁tariff	-12165
▁deutliche	-12166
▁educational	-12167
▁Auseinanders	-12168
▁economically	-12169
kapaz	-12170
▁Free	-12171
▁Prüf	-12172
fähigen	-12173
▁Auffor	-12174
▁stance	-12175
▁bearing	-12176
▁picture	-12177
▁allocation	-12178
VO	-12179
▁tang	-12180
▁shape	-12181
▁expense	-12182
management	-12183
▁preparations	-12184
ontex	-12185
▁quota	-12186
▁abgeben	-12187
▁drafted	-12188
▁irische	-12189
▁widespread	-12190
hlt	-12191
olf	-12192
▁zun	-12193
läufig	-12194
▁spring	-12195
mittlung	-12196
▁insofern	-12197
iced	-12198
ürze	-12199
▁Wün	-12200
▁Luftverkehrs	-12201
▁na	-12202
▁Tex	-12203
▁aircraft	-12204
▁incident	-12205
▁abolition	-12206
▁eintreten	-12207
▁liability	-12208
annual	-12209
▁IG	-12210
▁buy	-12211
▁Werk	-12212
▁flag	-12213
▁manche	-12214
▁warmly	-12215
▁beendet	-12216
rot	-12217
änge	-12218
▁würd	-12219
▁Rome	-12220
▁begrenzt	-12221
▁Treibhaus	-12222
quis	-12223
Über	-12224
▁Ferr	-12225
▁Fünf	-12226
kunden	-12227
▁hochwert	-12228
▁unabhängige	-12229
▁tatsächlichen	-12230
cting	-12231
▁wind	-12232
▁Erinner	-12233
▁resulted	-12234
▁Binnenmarkts	-12235
Med	-12236
▁Betrugs	-12237
▁stärksten	-12238
▁vermitteln	-12239
▁Überarbeitung	-12240
▁hervorragenden	-12241
urze	-12242
▁Polit	-12243
▁unzureichend	-12244
▁überprüft	-12245
-9	-12246
▁fresh	-12247
▁enthus	-12248
▁penalties	-12249
stock	-12250
▁Lang	-12251
▁Menschenhandel	-12252
kestein	-12253
▁Darfur	-12254
änderungs	-12255
▁Eurozone	-12256
▁2007-2013	-12257
▁anzup	-12258
▁freely	-12259
▁Zunahme	-12260
▁lasting	-12261
▁ausgegeben	-12262
▁processing	-12263
iern	-12264
▁Guant	-12265
▁ähnliche	-12266
▁restricted	-12267
riminal	-12268
▁undermine	-12269
▁erforderliche	-12270
▁Ol	-12271
urement	-12272
vic	-12273
5-03	-12274
▁vacc	-12275
▁English	-12276
▁dictatorship	-12277
6,	-12278
öse	-12279
5-02	-12280
▁essen	-12281
▁einhalten	-12282
ahara	-12283
▁europa	-12284
▁larger	-12285
▁Märkten	-12286
▁condemned	-12287
▁Swo	-12288
▁Schl	-12289
▁Swobod	-12290
▁Islamic	-12291
▁preserve	-12292
▁Generaldire	-12293
▁Automobil	-12294
▁Besonders	-12295
istent	-12296
▁explained	-12297
▁Bewältigung	-12298
derly	-12299
kehrt	-12300
▁Evalu	-12301
arently	-12302
▁innere	-12303
▁Inneres	-12304
fortunate	-12305
▁einzubeziehen	-12306
▁Kulturen	-12307
▁gebilligt	-12308
▁Finanziellen	-12309
▁Satz	-12310
▁Frühjahr	-12311
▁expensive	-12312
herstellung	-12313
▁Ratspräsidenten	-12314
▁Washing	-12315
▁tackling	-12316
ua	-12317
iagn	-12318
anlagen	-12319
▁Wandel	-12320
▁unfortunate	-12321
▁gegebenenfalls	-12322
▁19.	-12323
▁cele	-12324
▁racism	-12325
▁railway	-12326
▁Generationen	-12327
▁gleichermaßen	-12328
adox	-12329
▁ideal	-12330
▁cancer	-12331
mögliche	-12332
▁vorzusch	-12333
▁Palestinians	-12334
▁frank	-12335
▁gekenn	-12336
▁outset	-12337
▁Mehrwert	-12338
▁Ausnahmere	-12339
senz	-12340
orters	-12341
▁became	-12342
▁transe	-12343
▁ethical	-12344
▁gefragt	-12345
▁satisfaction	-12346
SA	-12347
WG	-12348
alia	-12349
▁covers	-12350
▁twenty	-12351
▁lessons	-12352
verschmutzung	-12353
▁ständigen	-12354
spolitische	-12355
▁Einschätzung	-12356
/2002	-12357
schiff	-12358
▁disappear	-12359
▁sud	-12360
▁Alters	-12361
▁musste	-12362
▁Frontex	-12363
▁civilian	-12364
▁Beschäftigten	-12365
▁spl	-12366
anian	-12367
ckung	-12368
▁army	-12369
▁fire	-12370
spläne	-12371
▁assum	-12372
▁unity	-12373
▁voller	-12374
▁Kraftfahr	-12375
▁Unterdrück	-12376
▁Flüchtlings	-12377
asc	-12378
▁corpor	-12379
▁debatt	-12380
▁minute	-12381
aßnahmen	-12382
lla	-12383
▁Palacio	-12384
▁Swoboda	-12385
▁erläutern	-12386
▁Vereinigte	-12387
▁kontrolliert	-12388
ACH	-12389
▁ton	-12390
▁proport	-12391
▁schlage	-12392
▁schwere	-12393
▁ausreichende	-12394
▁Day	-12395
werfen	-12396
▁Clearly	-12397
▁Verkauf	-12398
▁distort	-12399
▁Tausende	-12400
▁airports	-12401
▁Präsidium	-12402
▁Fortsetzung	-12403
▁bott	-12404
▁occurred	-12405
▁gefährden	-12406
▁Schm	-12407
▁einher	-12408
▁Schicks	-12409
▁öffentlicher	-12410
ärke	-12411
▁mith	-12412
▁Höchst	-12413
▁geziel	-12414
▁Director	-12415
▁derjenigen	-12416
▁ernsthafte	-12417
▁collaboration	-12418
▁Etik	-12419
▁Liby	-12420
▁city	-12421
▁Michel	-12422
▁widely	-12423
▁scandal	-12424
▁gradually	-12425
▁Bolkestein	-12426
▁Verfolgung	-12427
kodex	-12428
▁Barnier	-12429
▁motions	-12430
▁anb	-12431
ulted	-12432
▁fost	-12433
▁Verlängerung	-12434
▁langfristigen	-12435
utt	-12436
ifest	-12437
▁Konkurr	-12438
▁bezahlen	-12439
▁entsteht	-12440
▁physical	-12441
aria	-12442
orten	-12443
nisses	-12444
▁Marokko	-12445
▁erhoben	-12446
▁übermitteln	-12447
▁ursprünglich	-12448
45	-12449
denk	-12450
▁inj	-12451
▁irreg	-12452
▁indicators	-12453
18	-12454
▁Äg	-12455
▁blind	-12456
▁regeln	-12457
▁coordinate	-12458
▁Unionsbürger	-12459
▁eingereichten	-12460
bit	-12461
▁award	-12462
▁losses	-12463
▁bedeutenden	-12464
▁intelligent	-12465
▁EMU	-12466
▁AIDS	-12467
zenten	-12468
▁Werten	-12469
▁Schulen	-12470
▁causing	-12471
osex	-12472
▁Meer	-12473
▁shares	-12474
▁ökonom	-12475
▁declare	-12476
▁scrutin	-12477
ja	-12478
▁Brazil	-12479
▁promises	-12480
▁nonetheless	-12481
▁persönliche	-12482
▁umweltfreund	-12483
▁neun	-12484
▁Kredit	-12485
▁arrest	-12486
▁Veränderung	-12487
▁Arbeitsgruppe	-12488
AO	-12489
▁puts	-12490
▁Zwecke	-12491
▁Washington	-12492
▁Übereinkommens	-12493
ischung	-12494
▁turning	-12495
▁Lithuania	-12496
▁Rest	-12497
▁elderly	-12498
▁raw	-12499
▁Hafen	-12500
▁catch	-12501
▁Missbrauch	-12502
▁ecological	-12503
katastrophen	-12504
▁Beschränkungen	-12505
▁müßte	-12506
emissionen	-12507
▁Milosevic	-12508
▁receiving	-12509
▁schn	-12510
programme	-12511
▁terrorists	-12512
▁uncertainty	-12513
▁unterliegen	-12514
wurfs	-12515
Politik	-12516
▁populations	-12517
dep	-12518
meld	-12519
▁Deleg	-12520
▁remed	-12521
▁Schweiz	-12522
▁enhanced	-12523
acher	-12524
▁fand	-12525
Abkommen	-12526
liederung	-12527
▁Tschetschen	-12528
trans	-12529
ughter	-12530
▁compe	-12531
▁Großteil	-12532
ker	-12533
▁2004,	-12534
▁eingesch	-12535
po	-12536
ney	-12537
look	-12538
▁fla	-12539
iertes	-12540
Prozess	-12541
▁reserve	-12542
▁regulate	-12543
▁2015	-12544
▁Prop	-12545
▁Geneva	-12546
▁Auswahl	-12547
▁beteiligten	-12548
▁liv	-12549
▁tritt	-12550
▁deaths	-12551
▁ignore	-12552
▁imperial	-12553
▁indicate	-12554
▁bevorstehenden	-12555
ries	-12556
▁Pflanzen	-12557
▁offering	-12558
▁regulated	-12559
▁generations	-12560
▁Intervention	-12561
war	-12562
pidem	-12563
ansion	-12564
▁shift	-12565
▁engaged	-12566
▁Führungs	-12567
▁Bill	-12568
▁warning	-12569
▁scheinen	-12570
▁weakness	-12571
▁suggestion	-12572
▁unilateral	-12573
▁Parlamenten	-12574
EEC	-12575
▁Still	-12576
▁preca	-12577
▁Obviously	-12578
▁basically	-12579
▁mündliche	-12580
▁congratulations	-12581
▁swift	-12582
▁verwir	-12583
▁Baroness	-12584
▁Vertrauens	-12585
/98)	-12586
▁reloc	-12587
▁Freund	-12588
▁Anreize	-12589
▁weitaus	-12590
▁unanimous	-12591
▁demonstrates	-12592
▁Martin	-12593
gebieten	-12594
▁beiträgt	-12595
▁finances	-12596
▁observed	-12597
yle	-12598
rient	-12599
▁Merc	-12600
▁Kürze	-12601
▁Finanzen	-12602
▁financed	-12603
junkt	-12604
▁penal	-12605
▁solid	-12606
▁REACH	-12607
▁Standpunkte	-12608
▁Leid	-12609
ausend	-12610
▁students	-12611
▁regardless	-12612
▁Statistiken	-12613
▁journalists	-12614
▁territories	-12615
öffnung	-12616
betriebe	-12617
▁listened	-12618
▁IM	-12619
programms	-12620
▁existiert	-12621
opp	-12622
ifteen	-12623
▁drink	-12624
▁unp	-12625
building	-12626
▁undertake	-12627
back	-12628
ickt	-12629
oben	-12630
▁Ext	-12631
▁ECHO	-12632
▁anhalten	-12633
▁behalten	-12634
▁comparison	-12635
▁procurement	-12636
▁Rahmenprogramm	-12637
hüt	-12638
▁arbeitet	-12639
▁beweisen	-12640
▁geleiste	-12641
ams	-12642
kos	-12643
▁kr	-12644
▁mat	-12645
▁Canc	-12646
▁conce	-12647
▁Ke	-12648
▁Abs	-12649
▁umge	-12650
▁fairen	-12651
▁ersetzt	-12652
▁einfache	-12653
▁folglich	-12654
▁revolution	-12655
▁sach	-12656
▁islam	-12657
▁Centre	-12658
▁gewonnen	-12659
▁ausführlich	-12660
▁undertaking	-12661
▁Office	-12662
▁killed	-12663
▁equival	-12664
▁zukommen	-12665
▁Assoziierungs	-12666
▁rechtfertigen	-12667
▁qualifications	-12668
▁Blut	-12669
▁alte	-12670
▁stam	-12671
zusagen	-12672
▁Hauptz	-12673
▁Flughäfen	-12674
▁Visum	-12675
▁prevented	-12676
▁associations	-12677
▁extraordinary	-12678
▁inhab	-12679
▁empfehl	-12680
▁Konzentr	-12681
▁Verteidigungs	-12682
coun	-12683
▁haz	-12684
▁Brenn	-12685
▁notice	-12686
▁deterior	-12687
▁effizien	-12688
▁erzielten	-12689
▁vermieden	-12690
▁akzeptabel	-12691
ama	-12692
hel	-12693
ipeline	-12694
▁abgesehen	-12695
▁marine	-12696
achtungs	-12697
▁elektronischen	-12698
ichteten	-12699
▁effizienter	-12700
▁196	-12701
ächen	-12702
▁spect	-12703
gewogen	-12704
▁öffnen	-12705
drückt	-12706
▁leistet	-12707
parte	-12708
▁Sind	-12709
ulating	-12710
▁drivers	-12711
▁enttäuscht	-12712
aw	-12713
asting	-12714
▁Kernen	-12715
▁Wechsel	-12716
▁gewisser	-12717
▁umso	-12718
▁infrin	-12719
▁Tragödie	-12720
▁supplies	-12721
▁2009.	-12722
▁promoted	-12723
▁behauptet	-12724
▁dur	-12725
▁Suche	-12726
▁ernste	-12727
▁Planung	-12728
▁nützlich	-12729
▁Verträgen	-12730
▁kurze	-12731
▁battle	-12732
▁wählen	-12733
▁erweisen	-12734
▁Mac	-12735
methoden	-12736
▁section	-12737
▁necessity	-12738
▁unterscheiden	-12739
hear	-12740
▁bezie	-12741
▁Konvents	-12742
▁Americans	-12743
▁32	-12744
▁Indik	-12745
waltung	-12746
▁widmen	-12747
▁Redebeit	-12748
▁einzusch	-12749
▁erneuerbare	-12750
ancy	-12751
▁Chr	-12752
ichtete	-12753
▁Mission	-12754
▁Arbeitslosen	-12755
▁cyc	-12756
dition	-12757
stoßen	-12758
▁Bauern	-12759
▁Beurteilung	-12760
ftware	-12761
▁Anhang	-12762
▁Zucker	-12763
▁Einfuhr	-12764
▁Verletzungen	-12765
osis	-12766
▁(200	-12767
▁zentralen	-12768
▁ausgewogenen	-12769
▁armen	-12770
▁mobile	-12771
▁arising	-12772
▁effiziente	-12773
▁presentation	-12774
▁unerlässlich	-12775
▁Jahresbericht	-12776
▁EL	-12777
uden	-12778
/2006	-12779
▁freut	-12780
▁minim	-12781
▁Bananen	-12782
▁contacts	-12783
▁effektiver	-12784
▁konstruktiven	-12785
7,	-12786
▁win	-12787
stuffs	-12788
▁inhalt	-12789
▁nobody	-12790
▁dumping	-12791
▁eröffnet	-12792
▁Nonetheless	-12793
ministr	-12794
▁fortgesetzt	-12795
▁looked	-12796
▁aufbauen	-12797
▁Unternehmer	-12798
jet	-12799
▁fil	-12800
stands	-12801
▁irregular	-12802
▁Dafürhalten	-12803
▁sending	-12804
▁externen	-12805
uropäische	-12806
▁schrittweise	-12807
hrter	-12808
▁Again	-12809
▁Declar	-12810
▁Vorwand	-12811
ahnen	-12812
▁Kauf	-12813
recher	-12814
▁Wille	-12815
sprüche	-12816
▁abstained	-12817
Un	-12818
▁enger	-12819
▁couple	-12820
▁Betrieb	-12821
ower	-12822
▁Immun	-12823
▁inwie	-12824
▁Schreiben	-12825
▁gewählten	-12826
▁herrschen	-12827
▁Vertretung	-12828
▁bezeichnen	-12829
EWG	-12830
▁IGC	-12831
▁Haiti	-12832
▁aufer	-12833
▁shame	-12834
▁Rindfleisch	-12835
▁alter	-12836
▁hoher	-12837
▁Konzep	-12838
▁postal	-12839
▁Wachstumspakt	-12840
▁15.	-12841
▁Lehr	-12842
▁mittels	-12843
technologie	-12844
▁arg	-12845
Länder	-12846
▁hierfür	-12847
▁reinforce	-12848
▁sincerely	-12849
▁alternatives	-12850
▁facto	-12851
▁beenden	-12852
▁promise	-12853
▁Erinnerung	-12854
▁collection	-12855
▁compatible	-12856
▁frequently	-12857
▁organisierten	-12858
▁Block	-12859
▁Finnish	-12860
▁bewiesen	-12861
▁Alternativen	-12862
▁beschleunigen	-12863
rison	-12864
▁Inseln	-12865
▁sphere	-12866
▁tribute	-12867
▁struggle	-12868
▁erfolgreichen	-12869
▁viable	-12870
▁Ausland	-12871
▁pursued	-12872
▁vorschlägt	-12873
emen	-12874
▁2009,	-12875
istency	-12876
▁verdeut	-12877
▁zusammenge	-12878
dring	-12879
ruppen	-12880
▁Gebäude	-12881
▁angekündigt	-12882
rant	-12883
▁strike	-12884
▁begünst	-12885
▁bedenken	-12886
▁deutsche	-12887
▁kritisiert	-12888
▁33	-12889
▁Mug	-12890
igaret	-12891
rungen	-12892
klausel	-12893
▁severe	-12894
▁talked	-12895
▁angehen	-12896
▁ausdrück	-12897
▁beneficial	-12898
apers	-12899
quote	-12900
graben	-12901
▁2006,	-12902
▁Anreiz	-12903
▁senten	-12904
▁shortly	-12905
▁accompanied	-12906
ctors	-12907
▁roads	-12908
▁offenkund	-12909
▁Fähigkeiten	-12910
institutionellen	-12911
▁langem	-12912
EA	-12913
▁Sov	-12914
▁Ernen	-12915
▁Ergänz	-12916
▁Fakten	-12917
▁Palästin	-12918
▁gestattet	-12919
▁verschiedener	-12920
Ge	-12921
II	-12922
kons	-12923
▁Direkt	-12924
▁zurzeit	-12925
▁Millennium	-12926
OL	-12927
las	-12928
onou	-12929
▁züg	-12930
▁Ägyp	-12931
▁unique	-12932
▁mittler	-12933
regierungs	-12934
nes	-12935
▁Kal	-12936
▁drop	-12937
igation	-12938
▁Sollte	-12939
▁geschätz	-12940
▁mögen	-12941
▁transit	-12942
einkommen	-12943
▁informal	-12944
▁northern	-12945
rol	-12946
▁48	-12947
▁Fil	-12948
▁Wissens	-12949
▁clearer	-12950
abstimmung	-12951
▁clarification	-12952
merz	-12953
▁Tit	-12954
▁anp	-12955
▁Hoff	-12956
▁imbal	-12957
▁Kräften	-12958
▁abzielen	-12959
▁Meinungen	-12960
▁juris	-12961
▁wiederher	-12962
▁6,	-12963
▁moved	-12964
discrimin	-12965
▁Aussagen	-12966
ager	-12967
Bürger	-12968
Ländern	-12969
▁revenue	-12970
sprechend	-12971
▁conventions	-12972
zweif	-12973
▁breiten	-12974
▁begangen	-12975
▁mittlere	-12976
▁Luftfahrt	-12977
▁Nichtregierungs	-12978
osur	-12979
anzig	-12980
holen	-12981
▁Pakt	-12982
reform	-12983
▁erheben	-12984
▁Albanien	-12985
▁discover	-12986
▁agrees	-12987
▁leiten	-12988
beihilfen	-12989
▁Betroffenen	-12990
▁demographic	-12991
▁beglückwünsche	-12992
▁decre	-12993
▁Muslim	-12994
▁Sozialpolitik	-12995
▁forum	-12996
▁trave	-12997
▁aufrechter	-12998
▁efficiently	-12999
▁Rechenschaft	-13000
▁GVO	-13001
▁Joh	-13002
▁Zerst	-13003
illance	-13004
▁Declaration	-13005
▁einzuhalten	-13006
▁organisierte	-13007
▁intoler	-13008
Sch	-13009
feit	-13010
▁falsche	-13011
▁distinction	-13012
▁noise	-13013
▁rufen	-13014
▁einzugehen	-13015
▁congratulating	-13016
▁keen	-13017
▁2010,	-13018
ungsbew	-13019
▁erweitert	-13020
enne	-13021
rich	-13022
defiz	-13023
▁dism	-13024
▁Darin	-13025
▁Angebot	-13026
▁Cotonou	-13027
▁Präsenz	-13028
ervativen	-13029
▁Pflichten	-13030
▁coherence	-13031
▁2005,	-13032
▁Fourth	-13033
▁Opfern	-13034
ervative	-13035
▁divided	-13036
▁korrekt	-13037
▁rejection	-13038
▁verfügbaren	-13039
▁Konz	-13040
▁Städte	-13041
▁dasselbe	-13042
▁enlarged	-13043
zusprechen	-13044
▁aufzubauen	-13045
▁Ausrichtung	-13046
▁Subventionen	-13047
rebt	-13048
▁Tom	-13049
Artikel	-13050
▁transnational	-13051
erer	-13052
▁newsp	-13053
▁track	-13054
▁Single	-13055
▁Soviet	-13056
▁Gründung	-13057
gänzen	-13058
region	-13059
▁davor	-13060
▁Ausübung	-13061
▁erad	-13062
▁Organen	-13063
▁portugiesischen	-13064
▁blame	-13065
▁socio	-13066
▁torture	-13067
▁organise	-13068
▁verhandeln	-13069
ints	-13070
stände	-13071
▁Armee	-13072
▁Stück	-13073
▁items	-13074
▁textile	-13075
▁harmonised	-13076
züg	-13077
▁1999,	-13078
▁cheap	-13079
ederation	-13080
▁außergewöhn	-13081
▁exclusively	-13082
▁erfolgreiche	-13083
▁norm	-13084
▁radik	-13085
▁forests	-13086
▁division	-13087
stätigkeit	-13088
▁Finanzrahmen	-13089
band	-13090
liehen	-13091
▁Folter	-13092
▁Jedoch	-13093
▁refuse	-13094
▁gestaltet	-13095
▁observation	-13096
▁choices	-13097
▁Redezeit	-13098
▁ergänzen	-13099
▁Tradition	-13100
▁alongside	-13101
▁Straßenverkehr	-13102
4-00	-13103
▁hohem	-13104
▁zuläss	-13105
▁stations	-13106
▁Chechn	-13107
▁Object	-13108
▁reveal	-13109
▁enormen	-13110
▁verabschiede	-13111
▁approximately	-13112
orter	-13113
▁Their	-13114
▁strictly	-13115
▁fundament	-13116
▁Rub	-13117
level	-13118
▁liefern	-13119
▁IT	-13120
▁usual	-13121
▁nahezu	-13122
▁Moldova	-13123
▁emerging	-13124
▁Beobachter	-13125
eing	-13126
lege	-13127
▁Ple	-13128
zahlt	-13129
▁Great	-13130
▁Straße	-13131
▁parents	-13132
▁accessible	-13133
▁percentage	-13134
▁bra	-13135
eping	-13136
▁Statt	-13137
▁Atlantic	-13138
▁gegangen	-13139
▁beitreten	-13140
▁wiederhole	-13141
▁55	-13142
aken	-13143
ipping	-13144
▁troops	-13145
▁Chechnya	-13146
▁Kernenergie	-13147
▁2010.	-13148
▁bekräftigen	-13149
▁disappointed	-13150
ki	-13151
nell	-13152
▁Medik	-13153
▁preserv	-13154
▁bewirken	-13155
▁judgment	-13156
▁wirksamen	-13157
ico	-13158
▁größter	-13159
▁apparent	-13160
fel	-13161
üss	-13162
▁Guinea	-13163
▁hierzu	-13164
▁65	-13165
▁analy	-13166
▁fühlen	-13167
▁Versprechen	-13168
▁Außengrenzen	-13169
chnet	-13170
gehenden	-13171
chmark	-13172
führer	-13173
ürgern	-13174
▁Bewegung	-13175
LO	-13176
▁hilfreich	-13177
▁Canada	-13178
verhalten	-13179
▁disagree	-13180
▁simplify	-13181
▁Widerstand	-13182
▁7,	-13183
etten	-13184
jährige	-13185
▁Marktwirtschaft	-13186
▁card	-13187
▁begun	-13188
▁hohes	-13189
▁priorit	-13190
▁consulted	-13191
obyl	-13192
riff	-13193
rupt	-13194
▁timely	-13195
▁Statute	-13196
▁sharing	-13197
▁friendly	-13198
▁verteilt	-13199
älsch	-13200
▁nine	-13201
▁Ursprungs	-13202
▁defending	-13203
▁Beschwerden	-13204
▁Otherwise	-13205
▁respecting	-13206
▁crops	-13207
▁exempt	-13208
▁Rec	-13209
▁bomb	-13210
▁cease	-13211
gegeben	-13212
▁unanimity	-13213
▁surveillance	-13214
reben	-13215
▁maßgeb	-13216
WU	-13217
▁Pan	-13218
▁reported	-13219
▁Eigentums	-13220
▁angeboten	-13221
▁historische	-13222
▁hypoc	-13223
diction	-13224
▁Orient	-13225
▁geograf	-13226
▁Lateinamerika	-13227
▁Cas	-13228
nüpft	-13229
▁geop	-13230
country	-13231
▁arbeits	-13232
▁distingu	-13233
▁desirable	-13234
asts	-13235
▁2008,	-13236
▁Timor	-13237
▁route	-13238
▁eigenes	-13239
▁genauer	-13240
▁vehicle	-13241
▁gelassen	-13242
▁Mitbürger	-13243
▁umfassender	-13244
▁perspectives	-13245
weich	-13246
▁conservation	-13247
▁rela	-13248
▁Somit	-13249
▁schön	-13250
▁festen	-13251
▁Umstände	-13252
▁spanische	-13253
▁directed	-13254
zig	-13255
leute	-13256
▁traditions	-13257
bew	-13258
liste	-13259
▁2007,	-13260
▁Profess	-13261
▁Einnahmen	-13262
▁threatened	-13263
lif	-13264
▁ruling	-13265
▁commission	-13266
▁afrikanischen	-13267
iefst	-13268
trägt	-13269
▁Statut	-13270
▁invite	-13271
schreiten	-13272
bl	-13273
othing	-13274
▁Asien	-13275
endency	-13276
▁teilt	-13277
▁Geheim	-13278
▁klären	-13279
schließt	-13280
▁Einkommens	-13281
▁Versicherungs	-13282
▁traditionellen	-13283
FO	-13284
eff	-13285
iop	-13286
atom	-13287
view	-13288
▁mere	-13289
strichen	-13290
▁Herange	-13291
condition	-13292
▁replaced	-13293
▁eigentliche	-13294
Mediterranean	-13295
▁geste	-13296
▁vollen	-13297
▁Erfolge	-13298
ranational	-13299
▁Revolution	-13300
▁Syn	-13301
▁Two	-13302
reyer	-13303
holung	-13304
▁2003,	-13305
▁stützen	-13306
▁campaigns	-13307
▁connected	-13308
▁Ernährungs	-13309
▁intelligen	-13310
▁verringert	-13311
▁x	-13312
down	-13313
▁nament	-13314
▁inhabit	-13315
▁strenge	-13316
▁verwirk	-13317
▁Johannes	-13318
vy	-13319
▁Jean	-13320
▁Tunes	-13321
▁marked	-13322
▁schnelle	-13323
agn	-13324
▁hung	-13325
respect	-13326
▁heißen	-13327
▁Anwesenheit	-13328
▁wünschenswert	-13329
etus	-13330
erted	-13331
▁zielt	-13332
▁bewahren	-13333
▁Poet	-13334
▁tangible	-13335
▁Gesprächen	-13336
▁UEN	-13337
ccession	-13338
▁Anlagen	-13339
▁beginnt	-13340
beschluss	-13341
▁Mercosur	-13342
▁birth	-13343
▁Brasil	-13344
▁compete	-13345
▁permitted	-13346
▁Zusammensetzung	-13347
hütung	-13348
▁zählt	-13349
▁Schicksal	-13350
▁Tschetschenien	-13351
führte	-13352
▁Kanada	-13353
▁Norden	-13354
ressourcen	-13355
▁Hinsichtlich	-13356
▁USD	-13357
ingung	-13358
strateg	-13359
▁standing	-13360
▁Erzeugung	-13361
limin	-13362
ingent	-13363
▁enshr	-13364
▁acceptance	-13365
▁reflection	-13366
IN	-13367
▁arch	-13368
förderung	-13369
▁erklärte	-13370
▁experiencing	-13371
▁verwirklichen	-13372
▁heik	-13373
▁loans	-13374
▁Litauen	-13375
lagerung	-13376
▁lacking	-13377
▁Demonstr	-13378
▁defining	-13379
▁modernen	-13380
▁yourself	-13381
▁Absichten	-13382
▁Verö	-13383
kräften	-13384
▁Vorstellungen	-13385
▁38	-13386
othe	-13387
▁lesen	-13388
▁geplant	-13389
▁Folglich	-13390
▁Sitzungen	-13391
▁confusion	-13392
▁Einzelheiten	-13393
▁controversial	-13394
▁gleichberecht	-13395
▁refused	-13396
▁Studenten	-13397
/00	-13398
ürft	-13399
▁schuld	-13400
▁benefic	-13401
▁Verstärkung	-13402
▁assessments	-13403
▁integrierten	-13404
▁gehabt	-13405
▁amtierende	-13406
▁raises	-13407
▁respective	-13408
igem	-13409
▁erh	-13410
▁rising	-13411
▁pursuant	-13412
▁Sm	-13413
▁Educ	-13414
hafter	-13415
mäh	-13416
place	-13417
▁Allow	-13418
▁hoped	-13419
▁genießen	-13420
▁Poettering	-13421
ux	-13422
▁earn	-13423
▁search	-13424
▁Angehör	-13425
▁Bewusstsein	-13426
lehnen	-13427
▁incom	-13428
▁kolle	-13429
▁Cohesion	-13430
▁begegnen	-13431
▁Operation	-13432
▁israelischen	-13433
ohl	-13434
bten	-13435
▁Föder	-13436
▁Strafgerichts	-13437
▁MEDA	-13438
▁Risik	-13439
▁Rahmens	-13440
▁genetically	-13441
eter	-13442
▁dele	-13443
▁image	-13444
▁Einfluß	-13445
▁Nachdem	-13446
▁kritisch	-13447
▁zutiefst	-13448
▁Vorbehalte	-13449
angers	-13450
▁kohär	-13451
▁kümmern	-13452
▁Einwände	-13453
▁Lö	-13454
▁farms	-13455
▁Defence	-13456
▁übersch	-13457
▁categories	-13458
andt	-13459
opoul	-13460
▁Pack	-13461
▁resumed	-13462
▁zuverläss	-13463
ökonomischen	-13464
▁beträchtliche	-13465
▁III	-13466
asion	-13467
point	-13468
ktiven	-13469
▁Palestine	-13470
▁Mitwirkung	-13471
▁hinzuweisen	-13472
▁Jahrhunderts	-13473
ena	-13474
▁voc	-13475
debat	-13476
ophobia	-13477
▁konkre	-13478
▁Befürcht	-13479
▁gebrauch	-13480
▁gratuliere	-13481
▁Regulierungs	-13482
▁chinesischen	-13483
üste	-13484
▁Auto	-13485
▁Verd	-13486
aganda	-13487
▁lokale	-13488
▁Etikett	-13489
▁drängen	-13490
▁railways	-13491
▁eventuell	-13492
▁Jugoslawien	-13493
▁vorangegangenen	-13494
osselt	-13495
▁ersta	-13496
▁Bilanz	-13497
▁showed	-13498
gestaltung	-13499
▁einfacher	-13500
gro	-13501
▁PH	-13502
itzer	-13503
▁Beim	-13504
▁Freunde	-13505
eiden	-13506
▁Kurs	-13507
findung	-13508
tinuier	-13509
▁Posselt	-13510
▁geklärt	-13511
▁impetus	-13512
▁popular	-13513
▁consequently	-13514
hende	-13515
gefühl	-13516
▁adequ	-13517
▁Unserer	-13518
▁Simbabwe	-13519
▁Migr	-13520
Gipfel	-13521
▁Bevor	-13522
▁Vorder	-13523
▁bereiten	-13524
▁highlights	-13525
▁organizations	-13526
arked	-13527
▁Freit	-13528
▁victim	-13529
▁Beifall	-13530
▁auszuüben	-13531
▁ausgeführt	-13532
ibr	-13533
▁Similar	-13534
▁jüngste	-13535
▁Kontakte	-13536
▁leichter	-13537
▁reduziert	-13538
▁amtierenden	-13539
ibly	-13540
▁SIS	-13541
erium	-13542
▁plays	-13543
▁Mugabe	-13544
agements	-13545
▁signing	-13546
▁threshold	-13547
▁banking	-13548
▁lokaler	-13549
▁expansion	-13550
▁procedural	-13551
▁Palästinenser	-13552
▁Kommunikations	-13553
▁joined	-13554
▁logical	-13555
▁zerstört	-13556
▁kontinuier	-13557
▁gekennzeichnet	-13558
▁Eines	-13559
▁imposing	-13560
▁Kategorie	-13561
▁Unterdrückung	-13562
oret	-13563
▁ELDR	-13564
ikanen	-13565
sphase	-13566
▁accel	-13567
zugehen	-13568
▁forgotten	-13569
comp	-13570
izing	-13571
ermost	-13572
▁north	-13573
istical	-13574
liminary	-13575
▁partial	-13576
▁contributing	-13577
▁legislativen	-13578
ancies	-13579
▁freight	-13580
▁migrants	-13581
27	-13582
orf	-13583
ibiot	-13584
debate	-13585
▁Scheitern	-13586
▁führte	-13587
gehalten	-13588
▁entrepreneurs	-13589
fällig	-13590
▁maxim	-13591
▁verble	-13592
▁worthy	-13593
▁Fahrzeuge	-13594
▁ansehen	-13595
▁observers	-13596
▁Tar	-13597
▁interim	-13598
▁slightly	-13599
▁authorisation	-13600
▁characteristics	-13601
nde	-13602
hetor	-13603
ynamik	-13604
▁zumal	-13605
▁Termin	-13606
▁benutzt	-13607
▁observe	-13608
▁Phänomen	-13609
▁resource	-13610
▁Religions	-13611
▁abzielt	-13612
▁housing	-13613
möglichen	-13614
▁Belastung	-13615
▁aufgeworfen	-13616
gut	-13617
preis	-13618
▁zweck	-13619
▁vollem	-13620
▁unabding	-13621
▁stärkeren	-13622
▁keinesfalls	-13623
▁enge	-13624
soever	-13625
▁underlying	-13626
▁neighbourhood	-13627
aue	-13628
Abst	-13629
ipher	-13630
▁Lank	-13631
▁missing	-13632
▁Education	-13633
▁estimated	-13634
▁supranational	-13635
▁Sri	-13636
verbot	-13637
▁Regarding	-13638
▁Sozialpartner	-13639
▁Gewerkschaften	-13640
▁Stellungnahmen	-13641
▁funded	-13642
▁joining	-13643
▁Bedürfnissen	-13644
kom	-13645
olge	-13646
plus	-13647
▁Zwei	-13648
▁erstellt	-13649
▁einnehmen	-13650
▁approaches	-13651
know	-13652
▁lift	-13653
langes	-13654
▁quantit	-13655
▁Leistung	-13656
▁gefährlichen	-13657
▁Tro	-13658
▁schenken	-13659
▁philosoph	-13660
▁Landwirten	-13661
▁preventive	-13662
▁Aufforderung	-13663
▁Verzögerungen	-13664
ohlen	-13665
▁Appe	-13666
iaries	-13667
▁Ausfuhr	-13668
▁constra	-13669
▁Bewerber	-13670
▁gehandelt	-13671
▁verankert	-13672
▁vorzuschlagen	-13673
▁Sitzungsperiode	-13674
▁tsche	-13675
▁residence	-13676
▁ECO	-13677
▁soil	-13678
meidung	-13679
▁Nichts	-13680
▁disreg	-13681
▁Tatsachen	-13682
▁distributed	-13683
▁beeinflussen	-13684
fft	-13685
polit	-13686
▁Kopf	-13687
lüssen	-13688
▁Euror	-13689
▁Gipfels	-13690
▁ohnehin	-13691
▁Palästina	-13692
▁Vordergrund	-13693
▁Lebensmitteln	-13694
big	-13695
▁34	-13696
▁halt	-13697
▁Nordir	-13698
▁Rückgang	-13699
kontrollen	-13700
▁Gefängnis	-13701
▁Steigerung	-13702
▁Erm	-13703
▁Frid	-13704
changes	-13705
▁contam	-13706
▁integrity	-13707
▁ES	-13708
einen	-13709
ktive	-13710
gehende	-13711
oliberal	-13712
▁helpful	-13713
Aussprache	-13714
▁ethnischen	-13715
▁systematic	-13716
lez	-13717
▁Hü	-13718
jahres	-13719
reformen	-13720
▁whatsoever	-13721
läd	-13722
öte	-13723
ürzen	-13724
vereinbar	-13725
▁ersuchen	-13726
▁His	-13727
▁rare	-13728
▁versp	-13729
▁jeglich	-13730
▁dramatic	-13731
rechtliche	-13732
▁einfachen	-13733
▁Handlungen	-13734
▁Nachmittag	-13735
▁Dienststellen	-13736
▁arab	-13737
▁gather	-13738
▁ideolog	-13739
▁ambitions	-13740
▁accordingly	-13741
eto	-13742
▁kos	-13743
▁Hilfen	-13744
▁Hoheits	-13745
ößt	-13746
▁destroyed	-13747
▁achievements	-13748
▁Untersuchungs	-13749
▁übereinst	-13750
bü	-13751
arians	-13752
▁Hochschul	-13753
▁equivalent	-13754
twoch	-13755
werks	-13756
▁Alles	-13757
▁banned	-13758
▁fertig	-13759
▁stammen	-13760
▁verstoßen	-13761
▁beurteilen	-13762
▁klarstellen	-13763
▁representing	-13764
▁subsequently	-13765
ls	-13766
ARE	-13767
öten	-13768
etzten	-13769
▁Abfälle	-13770
▁Tatsächlich	-13771
▁beschrieben	-13772
ednes	-13773
reuung	-13774
▁Persön	-13775
ednesday	-13776
ölf	-13777
ensib	-13778
▁dispar	-13779
▁notably	-13780
▁Übersch	-13781
▁Euroraum	-13782
stimmigkeit	-13783
▁justification	-13784
hard	-13785
sson	-13786
intens	-13787
▁sales	-13788
▁regularly	-13789
▁vorrangig	-13790
stein	-13791
▁elig	-13792
▁allmäh	-13793
▁Services	-13794
▁chapter	-13795
liferation	-13796
▁envisaged	-13797
▁preliminary	-13798
wa	-13799
▁Fa	-13800
ario	-13801
usetzen	-13802
sparungen	-13803
schuldigen	-13804
sprogramms	-13805
▁exceptions	-13806
▁profession	-13807
▁gefährliche	-13808
▁Behinderungen	-13809
▁195	-13810
▁negativ	-13811
▁scrutiny	-13812
▁Meinungsäuß	-13813
▁Amb	-13814
▁adj	-13815
▁ther	-13816
▁wozu	-13817
itably	-13818
▁Konjunkt	-13819
▁subsequent	-13820
▁Innen	-13821
▁wofür	-13822
▁Please	-13823
▁dieselbe	-13824
▁Wass	-13825
▁coastal	-13826
▁prevail	-13827
▁vorüber	-13828
▁ungefähr	-13829
▁controlled	-13830
dete	-13831
▁Geber	-13832
▁managing	-13833
▁surrounding	-13834
▁verschaffen	-13835
ocratic	-13836
▁Tunisia	-13837
▁reconciliation	-13838
▁Liban	-13839
isations	-13840
zubringen	-13841
▁delegations	-13842
▁18.	-13843
nische	-13844
▁imported	-13845
▁Wednesday	-13846
▁definieren	-13847
▁restrictive	-13848
▁prompt	-13849
▁thousand	-13850
▁gewünscht	-13851
spräsidenten	-13852
▁appointment	-13853
▁Infrastrukturen	-13854
▁infrastructures	-13855
ym	-13856
▁diox	-13857
▁Artik	-13858
▁Front	-13859
▁schwe	-13860
▁Minute	-13861
▁beinhalten	-13862
▁technologische	-13863
rage	-13864
▁cha	-13865
stockung	-13866
▁advanced	-13867
▁organisieren	-13868
▁erb	-13869
human	-13870
▁feas	-13871
▁Nacht	-13872
▁mount	-13873
▁Fischereise	-13874
wid	-13875
aure	-13876
▁devo	-13877
fähige	-13878
zufolge	-13879
▁outermost	-13880
▁schwieriger	-13881
▁Lebanon	-13882
▁Versorgungs	-13883
antly	-13884
oning	-13885
ünfte	-13886
▁devast	-13887
▁Mittwoch	-13888
▁emission	-13889
verteilung	-13890
▁Ernennung	-13891
▁eingeschränkt	-13892
ca	-13893
Ges	-13894
▁reisen	-13895
▁exchanges	-13896
▁movements	-13897
▁finanziell	-13898
▁cultures	-13899
▁occupation	-13900
▁600	-13901
▁looks	-13902
▁length	-13903
▁Folgendes	-13904
▁participating	-13905
▁flows	-13906
▁klarer	-13907
▁profound	-13908
iki	-13909
▁Phil	-13910
▁judge	-13911
▁woman	-13912
▁Monday	-13913
iskrimin	-13914
▁Immunität	-13915
igned	-13916
▁fires	-13917
▁concent	-13918
▁Gefangenen	-13919
▁Solidarity	-13920
hor	-13921
▁könne	-13922
▁sichere	-13923
▁repräsent	-13924
▁Arbeitsweise	-13925
EF	-13926
▁advocate	-13927
▁anstreben	-13928
▁ungeachtet	-13929
▁vereinfachen	-13930
ron	-13931
known	-13932
▁Empf	-13933
igsten	-13934
▁error	-13935
▁Florenz	-13936
▁gefasst	-13937
▁covering	-13938
▁durchsetzen	-13939
▁inhabitants	-13940
infrastruktur	-13941
▁einzurichten	-13942
▁völl	-13943
▁Armuts	-13944
▁Ostsee	-13945
▁Vorfeld	-13946
▁jeweils	-13947
▁sentence	-13948
▁realistisch	-13949
▁fores	-13950
▁stages	-13951
▁chemicals	-13952
▁italienische	-13953
▁Inso	-13954
▁arbit	-13955
▁hazard	-13956
▁contemp	-13957
▁Ägypten	-13958
▁disputes	-13959
▁Bürgerrechte	-13960
▁konstitution	-13961
▁universities	-13962
Christdemokraten	-13963
▁Ster	-13964
▁losing	-13965
▁founded	-13966
▁erleichtert	-13967
ham	-13968
umn	-13969
▁heim	-13970
sitzung	-13971
ündeten	-13972
▁Funktions	-13973
▁constituen	-13974
▁resistance	-13975
ftet	-13976
▁hundred	-13977
▁drittens	-13978
DC	-13979
ective	-13980
arbeits	-13981
▁gained	-13982
▁regimes	-13983
▁conviction	-13984
▁ausgearbeitet	-13985
▁abend	-13986
▁Natura	-13987
▁höchsten	-13988
▁anzupassen	-13989
pack	-13990
▁Nob	-13991
▁gross	-13992
▁Differen	-13993
▁mistakes	-13994
▁ungerecht	-13995
▁Who	-13996
▁foss	-13997
zahlung	-13998
▁solved	-13999
▁underg	-14000
▁bedaure	-14001
▁marginal	-14002
regelungen	-14003
▁empfehlen	-14004
▁mandatory	-14005
▁Übernahme	-14006
apse	-14007
kter	-14008
▁fixed	-14009
▁Stunde	-14010
▁Gewährung	-14011
▁Einschränkung	-14012
zellen	-14013
▁unreal	-14014
olidierung	-14015
▁südlichen	-14016
▁schlechter	-14017
▁Mehrwertsteuer	-14018
▁Wäl	-14019
agnen	-14020
▁embry	-14021
▁pilot	-14022
▁traur	-14023
▁satell	-14024
staatliche	-14025
▁Innovationen	-14026
ela	-14027
▁Dort	-14028
ueller	-14029
▁PHARE	-14030
▁micro	-14031
tenance	-14032
▁berichten	-14033
▁sozusagen	-14034
▁Beitrittsk	-14035
▁Gleichwohl	-14036
▁eventually	-14037
▁durchgesetzt	-14038
▁Veröffentlich	-14039
▁16.	-14040
▁forese	-14041
▁Taliban	-14042
▁reductions	-14043
ordan	-14044
Entwick	-14045
lements	-14046
sträger	-14047
▁incorporate	-14048
▁infringement	-14049
▁verpflichten	-14050
▁Ms	-14051
▁Iraqi	-14052
▁fears	-14053
▁Fristen	-14054
▁Ursache	-14055
angehörigen	-14056
▁diesbezüglichen	-14057
▁zieht	-14058
▁Solidaritäts	-14059
▁Eco	-14060
▁Erika	-14061
schwemm	-14062
▁failing	-14063
▁cens	-14064
▁scen	-14065
▁euros	-14066
▁Herzeg	-14067
▁geprägt	-14068
▁zwingen	-14069
▁precaution	-14070
▁verursachen	-14071
ücke	-14072
imine	-14073
▁innoc	-14074
▁Vertrie	-14075
▁manchen	-14076
▁rechnen	-14077
▁statute	-14078
regierung	-14079
▁providers	-14080
▁Finanzielle	-14081
▁experiences	-14082
▁liked	-14083
▁Passag	-14084
▁install	-14085
▁verbieten	-14086
▁Spannungen	-14087
▁Verbindungen	-14088
ypri	-14089
ärer	-14090
▁nar	-14091
erven	-14092
ändler	-14093
▁Gemäß	-14094
▁Weiterb	-14095
▁ignored	-14096
▁suggests	-14097
▁Brasilien	-14098
▁angehören	-14099
▁biotechnolog	-14100
▁safeguarding	-14101
bil	-14102
▁Scot	-14103
produkte	-14104
▁Standard	-14105
▁Dollar	-14106
▁Glauben	-14107
▁eigentlichen	-14108
ele	-14109
▁Wats	-14110
▁makro	-14111
akischen	-14112
chung	-14113
▁Logik	-14114
▁aspir	-14115
▁Können	-14116
▁Montag	-14117
▁gelangt	-14118
Emissionen	-14119
▁Objective	-14120
▁Kommissars	-14121
▁Einstimmigkeit	-14122
ndez	-14123
vens	-14124
emale	-14125
holfen	-14126
spezif	-14127
tellte	-14128
▁knapp	-14129
schritt	-14130
▁beantragt	-14131
PS	-14132
ede	-14133
▁Putin	-14134
▁ratify	-14135
▁convince	-14136
▁integrate	-14137
▁stringent	-14138
ült	-14139
weile	-14140
▁Stad	-14141
▁Could	-14142
▁fails	-14143
▁inwieweit	-14144
▁Europäisches	-14145
▁unterstrichen	-14146
wart	-14147
▁Lom	-14148
▁erstellen	-14149
▁überrascht	-14150
▁Danke	-14151
▁Lobby	-14152
▁fifth	-14153
▁Sozialisten	-14154
▁Arbeitskräfte	-14155
▁Kab	-14156
▁Syria	-14157
▁Annäher	-14158
▁Zusch	-14159
▁drive	-14160
märkten	-14161
▁frustr	-14162
▁Euratom	-14163
▁Written	-14164
ständigen	-14165
▁monitored	-14166
▁Mitentscheidung	-14167
bem	-14168
▁Hence	-14169
▁teach	-14170
ussions	-14171
▁Behaupt	-14172
▁Derzeit	-14173
reichenden	-14174
▁dahingehend	-14175
▁8,	-14176
time	-14177
mellen	-14178
▁Institute	-14179
▁accountability	-14180
▁UC	-14181
▁ere	-14182
▁Fußball	-14183
▁konsult	-14184
▁Steuerung	-14185
▁compromises	-14186
▁Watson	-14187
▁inside	-14188
▁Korrekt	-14189
▁Vorsorge	-14190
mas	-14191
▁tox	-14192
▁Slowen	-14193
appropri	-14194
▁examination	-14195
oured	-14196
▁bemerk	-14197
▁pursuing	-14198
▁überlegen	-14199
▁14.	-14200
▁Annex	-14201
▁Libya	-14202
▁Wallström	-14203
▁begründet	-14204
▁listening	-14205
geschrieben	-14206
▁Democratic	-14207
▁consistency	-14208
endums	-14209
▁paradox	-14210
▁Tunesien	-14211
▁Konflikts	-14212
▁ausgewogene	-14213
wagen	-14214
▁Jarz	-14215
▁gäbe	-14216
ashion	-14217
▁Alter	-14218
regelmäß	-14219
▁pragmat	-14220
▁stellte	-14221
▁Einzelnen	-14222
▁Vorsitzende	-14223
▁Zielsetzung	-14224
▁Doppel	-14225
▁consent	-14226
financing	-14227
▁accepting	-14228
▁concludes	-14229
▁erweitern	-14230
▁bekanntlich	-14231
▁furthermore	-14232
▁schwedische	-14233
▁herzustellen	-14234
läg	-14235
▁Mag	-14236
aceut	-14237
▁rely	-14238
reibung	-14239
▁prejud	-14240
▁Jarzemb	-14241
▁Criminal	-14242
▁Insofern	-14243
▁ignoriert	-14244
örd	-14245
▁42	-14246
▁unjust	-14247
streaming	-14248
▁Progress	-14249
▁Similarly	-14250
▁85	-14251
▁Säule	-14252
▁signs	-14253
rüstung	-14254
▁Certain	-14255
[...]
